{"version":"1.0","truncation":null,"padding":null,"added_tokens":[{"id":0,"special":true,"content":"[UNK]","single_word":false,"lstrip":false,"rstrip":false,"normalized":false},{"id":1,"special":true,"content":"[CLS]","single_word":false,"lstrip":false,"rstrip":false,"normalized":false},{"id":2,"special":true,"content":"[SEP]","single_word":false,"lstrip":false,"rstrip":false,"normalized":false},{"id":3,"special":true,"content":"[PAD]","single_word":false,"lstrip":false,"rstrip":false,"normalized":false},{"id":4,"special":true,"content":"[MASK]","single_word":false,"lstrip":false,"rstrip":false,"normalized":false}],"normalizer":null,"pre_tokenizer":null,"post_processor":null,"decoder":null,"model":{"type":"BPE","dropout":null,"unk_token":null,"continuing_subword_prefix":null,"end_of_word_suffix":null,"fuse_unk":false,"vocab":{"[UNK]":0,"[CLS]":1,"[SEP]":2,"[PAD]":3,"[MASK]":4,"\n":5," ":6,"-":7,"/":8,"0":9,"1":10,"2":11,"3":12,"4":13,"5":14,"6":15,"7":16,"8":17,"9":18,"<":19,">":20,"B":21,"E":22,"K":23,"M":24,"N":25,"O":26,"P":27,"Q":28,"R":29,"S":30,"V":31,"W":32,"_":33,"a":34,"b":35,"c":36,"d":37,"e":38,"f":39,"g":40,"h":41,"i":42,"k":43,"l":44,"n":45,"p":46,"q":47,"r":48,"t":49,"w":50,"EP":51,"SEP":52,"SEP>":53," <":54,"E_":55,"MO":56,"VE_":57,"SEP> ":58," <MO":59,"VE_SEP> ":60," <MOVE_SEP> ":61," -":62,"1/":63,"8/":64," - ":65,"pp":66,"PP":67,"2/":68," - - ":69,"1p":70,"1P":71,"3/":72,"1 ":73,"Wh":74,"e <MOVE_SEP> ":75,"it":76,"Whit":77,"White <MOVE_SEP> ":78,"Bl":79,"ac":80,"k <MOVE_SEP> ":81,"Blac":82,"Black <MOVE_SEP> ":83,"0 ":84,"2p":85,"P/":86,"4/":87," White <MOVE_SEP> ":88," Black <MOVE_SEP> ":89," w":90," b":91,"p/":92,"2P":93,"8/8/":94,"5/":95," b - - ":96," w - - ":97,"r/":98,"1b":99,"k1/":100,"1R":101,"1B":102,"3p":103,"3P":104,"2R":105,"K1 ":106,"6/":107," K":108,"q - ":109,"1r":110,"kq - ":111,"7/":112,"4\n":113,"5\n":114,"4 <MOVE_SEP> ":115,"5 <MOVE_SEP> ":116," KQ":117,"P1/":118,"1N":119,"1n":120,"1K":121,"2N":122,"6\n":123,"4p":124,"6 <MOVE_SEP> ":125,"3\n":126,"1P/":127,"1k":128,"3 <MOVE_SEP> ":129,"2b":130,"qk":131,"1p/":132,"1PP":133,"r/pp":134,"1pp":135," KQkq - ":136,"2 ":137,"8 b - - ":138,"8 w - - ":139,"2r":140,"P/R":141,"QK":142,"2n":143,"p1/":144,"4P":145,"3R":146,"rn":147,"2B":148,"7\n":149,"2K":150,"7 <MOVE_SEP> ":151,"2\n":152,"2 <MOVE_SEP> ":153,"b1":154,"2k":155,"2PP":156,"3K":157,"K1 b":158,"K1 w":159,"3r":160,"1Q":161,"1q":162,"3 ":163,"ppp/":164,"3k":165,"rnb":166,"8\n":167,"2/8/":168,"3b":169,"QKB":170,"1\n":171,"8 <MOVE_SEP> ":172,"r1b":173,"1 <MOVE_SEP> ":174,"4R":175,"5P":176,"K1 w - - ":177,"2Q":178,"K1 b - - ":179,"5p":180,"4K":181," KQkq - 0 ":182,"NB":183,"2q":184,"2p/":185,"pp/":186,"3/8/":187,"4k":188,"4r":189,"3B":190,"rnbqk":191,"5K":192,"4b":193,"5k":194,"2P/":195,"4 ":196,"PP/":197," White <MOVE_SEP> e":198,"0 2":199," White <MOVE_SEP> f":200," Black <MOVE_SEP> f":201,"2/P":202," White <MOVE_SEP> d":203," Black <MOVE_SEP> d":204,"0 1":205,"1/R":206," Black <MOVE_SEP> e":207,"1p1/":208,"6k1/":209,"2pp":210,"bn":211," White <MOVE_SEP> c":212,"3n":213,"3N":214," Black <MOVE_SEP> c":215,"1 White <MOVE_SEP> ":216,"1P1/":217,"1 Black <MOVE_SEP> ":218,"8/8/8/":219," White <MOVE_SEP> g":220,"k/":221,"2/PP":222," Black <MOVE_SEP> g":223,"0 3":224,"5R":225,"2p5/":226,"3/P":227,"K1/":228,"6P1/":229,"4/8/":230,"7P/":231,"2P5/":232,"2/p":233,"7p/":234,"0 White <MOVE_SEP> ":235,"0 Black <MOVE_SEP> ":236,"5r":237,"QKB1R":238,"5 ":239,"3Q":240,"4B":241,"6p1/":242,"5b":243,"PPP/R":244,"pp1/":245,"NR":246,"bnr/pp":247," Black <MOVE_SEP> b":248,"8f":249,"n2/":250,"3q":251,"b1r/pp":252,"7e":253,"4p3/":254,"2e":255,"5N":256,"1f":257,"2r/":258,"8d":259,"7f":260," w KQkq - 0 ":261,"2d":262,"7d":263,"8e":264,"0 4":265,"2f":266,"1 1":267,"1k1/":268,"7c":269,"3p4/":270,"2c":271,"4d":272,"6e":273,"1e":274,"5d":275,"3e":276,"4e":277,"3P/":278,"K/":279,"6d":280,"p1p":281,"8c":282," White <MOVE_SEP> h":283,"QKBNR":284,"p7/":285,"1ppp/":286," Black <MOVE_SEP> a":287,"8g":288,"1g":289,"1/8/":290,"1d":291,"5e":292,"3d":293," Black <MOVE_SEP> h":294,"1/P":295,"6b":296,"3p/":297,"7g":298,"6 ":299," White <MOVE_SEP> a":300,"2g":301,"5P2/":302,"1 2":303,"pP":304," White <MOVE_SEP> b":305,"7b":306," b KQkq - 0 ":307,"3P4/":308,"5f":309,"rnbqkbnr/pp":310,"4c":311,"4f":312,"4N":313,"4P3/":314,"PP/R":315,"5c":316,"2/1P":317,"1 3":318,"PPP":319,"1p6/":320,"2 b - - ":321,"2 w - - ":322," kq - ":323,"5k2/":324,"1rk1/":325,"r1bqk":326,"6K1/":327,"2p1/":328,"5p2/":329,"QK2R":330,"5/8/":331,"3PP":332,"3f":333,"6f":334,"1p3/":335,"P7/":336,"2P1/":337,"2h":338,"3g":339,"7 ":340,"7h":341," b KQkq - ":342,"6g":343,"4n":344,"4Q":345,"1 4":346,"0 5":347,"pb":348,"4P/":349,"6c":350,"1P6/":351,"4g":352,"2r/pp":353,"/8/":354,"p2p":355,"5g":356,"P/R1B":357,"PPPP":358,"3c":359,"7k/":360," w KQkq - ":361,"P1P":362,"4k3/":363,"2k1/":364,"6R":365,"4p/":366,"1P/R":367,"1c":368,"5K2/":369,"7a":370,"4q":371,"8b":372,"P2/":373,"2a":374,"4 <MOVE_SEP> e":375,"5 <MOVE_SEP> f":376,"NBQKBNR":377,"2 1":378," KQ - ":379,"4 <MOVE_SEP> d":380,"5 <MOVE_SEP> e":381,"PB":382,"5 <MOVE_SEP> d":383,"4 <MOVE_SEP> c":384,"1P3/":385,"Pp":386,"5B":387,"4 <MOVE_SEP> f":388,"P3/":389,"b1r/":390,"3P1/":391,"1 5":392,"8 ":393,"3 b - - ":394,"5 <MOVE_SEP> c":395,"B1R":396,"3 w - - ":397,"7R":398,"1P2/":399,"p2/":400,"3p1/":401,"1k/":402,"3h":403,"4h":404,"6h":405,"3 <MOVE_SEP> d":406,"5h":407,"p1n":408,"6 <MOVE_SEP> d":409,"6 <MOVE_SEP> e":410,"6r":411,"8/8/8/8/":412,"4/P":413,"4K3/":414,"6 <MOVE_SEP> f":415,"B1/":416,"r3k":417,"r7/":418,"8h":419,"4a":420,"3 <MOVE_SEP> e":421,"5a":422,"6/8/":423,"1PN":424,"3 <MOVE_SEP> f":425,"1p1p":426,"p3p":427,"3k4/":428,"NBQKB1R":429,"1h":430,"PP1/":431,"9 ":432,"4 <MOVE_SEP> g":433,"5 <MOVE_SEP> g":434,"bp/":435,"4 b - - ":436,"3ppp/":437,"0 6":438,"2 3":439,"3a":440,"1p2p":441,"6 <MOVE_SEP> g":442,"3 <MOVE_SEP> g":443,"4 w - - ":444,"6 <MOVE_SEP> c":445,"4P1/":446,"1p2/":447,"6a":448,"pppp/":449,"3 <MOVE_SEP> c":450,"5p/":451,"rnbqkbnr/pppp":452,"2P2/":453,"rnbqkb1r/pp":454,"p3/":455,"k - ":456,"2k5/":457,"2 2":458,"8a":459,"2 4":460,"5P/":461,"1 6":462,"3 1":463,"7r/":464,"7K/":465,"2pP":466,"r1b1k":467,"1pn":468,"2ppp/":469,"5Q":470,"3r4/":471,"5n":472,"3K4/":473,"p1P":474,"1 w":475,"1 b":476,"PPP/R1B":477,"1pP":478,"5N2/PP":479,"1/R1B":480,"/P":481,"2r5/":482,"3k1/":483,"7 <MOVE_SEP> f":484,"7 <MOVE_SEP> e":485,"5 b - - ":486,"1PPP/R":487,"b1/":488,"3 <MOVE_SEP> b":489,"6P/":490,"1K1 w - - ":491,"5P1/":492,"5q":493,"4 <MOVE_SEP> b":494,"1PB":495,"2qk":496,"2Pp":497,"2 <MOVE_SEP> f":498,"R7/":499,"4r3/":500,"5 w - - ":501,"6p/":502,"2 <MOVE_SEP> e":503,"Q1R":504,"q1rk1/":505,"1K1 b - - ":506,"7 <MOVE_SEP> d":507,"1 w - - ":508,"4p1/":509,"2K5/":510,"r2qk":511,"2 5":512,"2 <MOVE_SEP> d":513,"2rk1/":514,"1 b - - ":515,"5 <MOVE_SEP> b":516,"3P2/":517,"2N5/":518,"5r2/":519,"1K2R":520,"R1B":521,"1P2P":522,"P1N":523,"4 <MOVE_SEP> a":524,"1r/":525,"8 w - - 1":526,"5 <MOVE_SEP> a":527,"8 b - - 1":528,"6K1 b - - ":529,"2R5/":530,"1pp1/":531,"5 <MOVE_SEP> h":532,"1pp/":533,"r2q":534,"2N2N":535,"1k6/":536,"7 <MOVE_SEP> g":537,"7 <MOVE_SEP> c":538,"p1p/":539,"5p1/":540," w KQ - ":541,"NBQKBNR w KQkq - 0 ":542,"2 <MOVE_SEP> g":543,"4 <MOVE_SEP> h":544,"rnbqkbnr/pppppppp/":545,"2 <MOVE_SEP> c":546,"2p2/":547,"1r6/":548,"1a":549,"1 7":550,"b1c":551,"0 7":552,"4 1":553,"6K1 w - - ":554,"3R4/":555,"1PP/":556,"6 <MOVE_SEP> b":557,"1P1P":558,"8 <MOVE_SEP> f":559,"7 b - - ":560,"2PPP/R":561,"6 <MOVE_SEP> h":562,"B/":563,"p1b":564," k - ":565,"2PP4/":566,"3 <MOVE_SEP> a":567,"6 b - - ":568,"6 <MOVE_SEP> a":569,"3 4":570,"1NR":571,"8 <MOVE_SEP> e":572,"pn":573,"7 w - - ":574,"K1 b kq - ":575,"1 <MOVE_SEP> f":576,"r4r":577,"1p3p":578,"3 <MOVE_SEP> h":579,"8/p":580,"3 3":581,"4R3/":582,"1 <MOVE_SEP> e":583,"6 w - - ":584,"2PB":585,"2 6":586,"8 <MOVE_SEP> d":587,"1p1b":588,"bppp/":589,"P1/PP":590,"5k1/":591,"1qk":592," K - ":593,"1K6/":594,"5n2/":595,"6r1/":596,"1 <MOVE_SEP> d":597,"1p1n":598,"7R/":599,"Q/":600,"1pq":601,"5R2/":602,"PN":603," b KQ - ":604,"3/1P":605,"3 5":606,"1R6/":607,"p4p":608,"3pp":609,"3K2R":610,"8 <MOVE_SEP> c":611,"8 <MOVE_SEP> g":612,"7 <MOVE_SEP> h":613,"2 <MOVE_SEP> b":614,"2p1p":615,"1 <MOVE_SEP> c":616,"1 <MOVE_SEP> g":617,"5k2/8/":618,"1Pp":619,"5 1":620,"3 2":621,"2 <MOVE_SEP> h":622,"5rk1/":623,"2K1 w - - ":624,"7/8/":625,"1K/":626,"7 <MOVE_SEP> a":627,"P2P":628,"K1 w kq - ":629,"4k1/":630,"2 <MOVE_SEP> a":631,"2K1 b - - ":632,"3pp1/":633,"8/8/8 b - - ":634,"7 <MOVE_SEP> b":635,"8/8/8 w - - ":636,"1 8":637,"1P1B":638,"6k1/8/":639,"3B4/":640,"BP/R":641,"2n2/":642,"6R1/":643,"rn1qk":644,"1KB1R":645,"PP1/R":646,"7K":647,"r1k1/":648,"p1pp":649,"4P2/":650,"PPP/":651,"4B3/":652,"1p1p/":653,"8g8\n":654,"3PPP/R":655,"r4rk1/":656,"0 8":657,"1 Black <MOVE_SEP> e":658,"3 6":659,"2n5/":660,"2pp/":661,"5p1p/":662,"2 7":663,"p2ppp/":664,"4b3/":665,"NBQKBNR b KQkq - 0 ":666,"2/2P":667,"6Q":668,"4k3/8/":669,"1g1\n":670,"p1q":671,"1PPP/R1B":672,"6q":673,"1 White <MOVE_SEP> e":674,"1 <MOVE_SEP> b":675,"2pp1/":676,"1PPPP/R":677,"6p":678,"3b4/":679,"p2P":680,"5P1P/":681,"6 1":682,"N/":683,"1rb":684,"1 White <MOVE_SEP> d":685,"1PQ":686,"7e6\n":687,"1nr/pp":688,"6P":689,"8 <MOVE_SEP> h":690,"rnb1k":691,"8e7\n":692,"5pp1/":693,"PPPP/R":694,"3/2P":695,"8 <MOVE_SEP> a":696,"P3P":697,"1p2b":698,"n/":699,"1 <MOVE_SEP> h":700,"2KR":701,"b/":702,"1 Black <MOVE_SEP> c":703,"P1B":704,"2b5/":705,"3r/":706,"8/8 b - - ":707,"1 <MOVE_SEP> a":708,"1P/PP":709,"2k/":710,"1P1N":711,"2Q1R":712,"4r1k1/":713,"8/8 w - - ":714,"P1p":715,"8d7\n":716,"8 <MOVE_SEP> b":717,"7f6\n":718,"2PP/":719,"1P/R1B":720,"4 4":721,"2 White <MOVE_SEP> e":722,"3p2/":723,"4PN":724,"N1":725,"p2n":726,"4p2p/":727,"r1bq1rk1/":728,"1 White <MOVE_SEP> c":729,"p4":730,"1ppppp/":731,"2f3\n":732,"1e2\n":733,"N1/":734,"2g3\n":735,"r5k1/":736,"1 9":737,"7 1":738,"3Q4/":739,"1K1/":740,"1 Black <MOVE_SEP> d":741,"1B2/":742,"pq":743,"2 White <MOVE_SEP> g":744,"r1bqkb1r/pp":745,"1PP1/":746,"3 7":747,"2p1p3/":748,"1K1R":749,"2 White <MOVE_SEP> d":750,"7g6\n":751,"K1 b - - 0 2":752,"k7/":753,"2 Black <MOVE_SEP> d":754,"3 White <MOVE_SEP> e":755,"2 Black <MOVE_SEP> e":756,"0 9":757,"8f6\n":758,"p2b":759,"4 5":760,"5K2 b - - ":761,"2QK2R":762,"1 White <MOVE_SEP> g":763,"n1/":764,"1p1ppp/":765,"3N4/":766,"1P/P":767,"4 Black <MOVE_SEP> f":768,"1f3\n":769,"3r2k1/":770,"5K2/8/":771,"3k4/8/":772,"1pb":773,"k2/":774,"6B1/":775,"4e5\n":776,"PP2PP":777,"4PP":778,"3 White <MOVE_SEP> f":779,"4 White <MOVE_SEP> f":780,"1p1P":781,"2pp4/":782,"2B5/":783,"3 Black <MOVE_SEP> f":784,"4 White <MOVE_SEP> e":785,"4d5\n":786,"7q":787,"5 White <MOVE_SEP> f":788,"3 White <MOVE_SEP> d":789,"5 Black <MOVE_SEP> f":790,"0 White <MOVE_SEP> f":791,"6e5\n":792,"3 Black <MOVE_SEP> d":793,"pB":794,"1P3P":795,"2N2N2/PP":796,"4K3/8/":797,"0 White <MOVE_SEP> e":798,"p4/":799,"5d4\n":800,"N3/":801,"2 White <MOVE_SEP> f":802,"4N3/":803,"3 Black <MOVE_SEP> e":804,"6 White <MOVE_SEP> f":805,"0 Black <MOVE_SEP> f":806,"4Q3/":807,"1 White <MOVE_SEP> f":808,"5 White <MOVE_SEP> e":809,"2p3/":810,"K1 w - - 0 2":811,"1 Black <MOVE_SEP> g":812,"QK1NR":813,"4 White <MOVE_SEP> d":814,"6 Black <MOVE_SEP> f":815,"n1p/":816,"2QKB1R":817,"8 White <MOVE_SEP> f":818,"2d4\n":819,"4 Black <MOVE_SEP> d":820,"8/6k1/":821,"4 Black <MOVE_SEP> e":822,"1RB":823,"0 Black <MOVE_SEP> e":824,"6d5\n":825,"8e8\n":826,"2 White <MOVE_SEP> c":827,"1 Black <MOVE_SEP> f":828,"6 White <MOVE_SEP> e":829,"3n4/":830,"4pn2/":831,"5 White <MOVE_SEP> d":832,"8 White <MOVE_SEP> e":833,"2 Black <MOVE_SEP> f":834,"7 White <MOVE_SEP> f":835,"2pppp/":836,"5 Black <MOVE_SEP> e":837,"5K2 w - - ":838,"7 White <MOVE_SEP> e":839,"0 White <MOVE_SEP> d":840,"8d8\n":841,"8 Black <MOVE_SEP> f":842,"7 Black <MOVE_SEP> f":843,"5PP1/":844,"6 Black <MOVE_SEP> e":845,"5b2/":846,"8 1":847,"2 Black <MOVE_SEP> g":848,"2 Black <MOVE_SEP> c":849,"2e3\n":850,"1n2/":851,"9 White <MOVE_SEP> f":852,"8 Black <MOVE_SEP> e":853,"5 Black <MOVE_SEP> d":854,"4P3/8/":855,"9 White <MOVE_SEP> e":856,"8/8/8/8/PPPP":857,"PPPP/RNBQKBNR w KQkq - 0 ":858,"rnbqkbnr/pppppppp/8/8/8/8/PPPP":859,"rnbqkbnr/pppppppp/8/8/8/8/PPPPPPPP/RNBQKBNR w KQkq - 0 ":860,"<SEP>":861,"<SEP>\n":862,"6 White <MOVE_SEP> d":863,"4 3":864,"9 Black <MOVE_SEP> f":865,"1e1\n":866,"p3b":867,"2Q5/":868,"BP/":869,"0 Black <MOVE_SEP> d":870,"7c6\n":871,"b2/":872,"8 White <MOVE_SEP> d":873,"p7/P":874,"3 White <MOVE_SEP> c":875,"7 Black <MOVE_SEP> e":876,"3 White <MOVE_SEP> g":877,"P4/":878,"6K":879,"6 Black <MOVE_SEP> d":880,"9 Black <MOVE_SEP> e":881,"r2q1rk1/":882,"7 White <MOVE_SEP> d":883,"8c8\n":884,"P1P/":885,"3 Black <MOVE_SEP> c":886,"1B1/":887,"8 Black <MOVE_SEP> d":888,"3e4\n":889,"9 White <MOVE_SEP> d":890,"1d1\n":891,"4n3/":892,"8/1p":893,"3KB1R":894,"1k2/":895,"2P1P":896,"4pp":897,"PP1PP":898,"7 Black <MOVE_SEP> d":899,"2PP1/":900,"p3P":901," White <MOVE_SEP> h2h":902,"r1b2rk1/":903,"4 White <MOVE_SEP> c":904,"2pP4/":905,"8f8\n":906,"2k5/8/":907,"r1/":908,"K7/":909,"5B2/":910,"7h6\n":911,"p6p/":912,"1g2\n":913,"9 Black <MOVE_SEP> d":914,"1b2/":915,"3 Black <MOVE_SEP> g":916,"QR":917,"4 Black <MOVE_SEP> c":918,"0 White <MOVE_SEP> c":919,"2PPP/R1B":920,"Q7/":921,"5e4\n":922,"1r1/":923,"5 White <MOVE_SEP> c":924,"8/P":925,"2P3/":926,"3d4\n":927,"3RK":928,"0 Black <MOVE_SEP> c":929,"5 Black <MOVE_SEP> c":930,"4 White <MOVE_SEP> g":931,"2c4\n":932,"NBQK2R":933,"1P1P/":934,"1p2p/":935,"9 1":936,"6 White <MOVE_SEP> c":937,"r3r":938,"4 Black <MOVE_SEP> g":939,"3q4/":940,"1b1/":941,"8 White <MOVE_SEP> c":942,"4 6":943,"1Q6/":944,"8g7\n":945,"6b1/":946,"pp1ppp/":947,"2e4\n":948," w KQkq - 0 1":949,"3pp/":950,"4c5\n":951,"6 Black <MOVE_SEP> c":952,"r1bqk2r/pp":953,"7 White <MOVE_SEP> c":954,"2bppp/":955,"1B6/":956,"NBQKB1R w KQkq - 0 ":957,"3K4/8/":958,"7d5\n":959,"5 White <MOVE_SEP> g":960," w K - ":961,"8 Black <MOVE_SEP> c":962,"4P2P/":963,"kp/":964,"3pP3/":965,"5 Black <MOVE_SEP> g":966,"7d6\n":967,"9 White <MOVE_SEP> c":968,"5c4\n":969,"7 Black <MOVE_SEP> c":970,"6 White <MOVE_SEP> g":971,"3R1R":972,"0 White <MOVE_SEP> g":973,"2c3\n":974,"rnbqk2r/pp":975,"7Q/":976,"p1/8/":977,"4 2":978,"NBQKB1R b KQkq - 0 ":979,"8 White <MOVE_SEP> g":980,"0 Black <MOVE_SEP> g":981,"9 Black <MOVE_SEP> c":982,"3pP":983,"7 White <MOVE_SEP> g":984,"6 Black <MOVE_SEP> g":985,"1nr/":986,"n3/":987,"1b6/":988,"1f1\n":989,"8 Black <MOVE_SEP> g":990,"8/5k2/":991,"p5p1/":992,"7 Black <MOVE_SEP> g":993,"2r3k1/":994,"9 White <MOVE_SEP> g":995,"6pp/":996,"2pb":997,"r3k2r/":998,"3P4/8/":999," Q":1000,"5Q2/":1001,"8 b - - 0 4":1002,"5/P":1003,"1P4P1/":1004,"2kr":1005,"8 b - - 0 5":1006,"5 5":1007,"2p1p/":1008,"9 Black <MOVE_SEP> g":1009,"6PP/":1010,"2 8":1011,"7c5\n":1012,"1c1\n":1013,"7b6\n":1014,"1p5p/":1015,"P1/P":1016,"4f5\n":1017," Black <MOVE_SEP> a7a":1018,"5f4\n":1019,"8q":1020," White <MOVE_SEP> a2a":1021,"rk1/":1022," w - - 0 2":1023," b - - 0 2":1024,"2PN":1025,"3k/":1026," b K - ":1027,"5PK1/":1028,"2p1b":1029,"5 4":1030," White <MOVE_SEP> b1c":1031,"2p2n":1032,"1P2B":1033,"2R3":1034,"8 w - - 0 4":1035,"4p3/8/":1036,"4p1p1/":1037,"2NB":1038,"K2/":1039,"4q3/":1040,"2b3\n":1041,"2Pp4/":1042,"p3p3/":1043,"pN":1044,"2p5/2P5/":1045,"1p4p1/":1046,"5pk1/":1047,"2K1/":1048,"4r/":1049,"2P1P3/":1050,"2p4p/":1051,"5f6\n":1052,"1d2\n":1053,"6Q1/":1054,"8 w - - 2":1055,"bpp1/":1056,"3g4\n":1057,"3PPP/R1B":1058,"4g5\n":1059,"rnbqkbnr/pppppppp/8/8/":1060,"3f4\n":1061,"2/P7/":1062,"2P1B":1063," b KQkq - 0 1":1064,"8 b - - 2":1065,"6f5\n":1066,"8 w - - 0 5":1067,"2 Black <MOVE_SEP> b":1068,"4pp/":1069,"2d3\n":1070,"2p3p1/":1071,"1p4/":1072,"1b1\n":1073,"3R4 b - - ":1074,"6g5\n":1075,"5 6":1076,"4 Black <MOVE_SEP> b":1077,"3 Black <MOVE_SEP> b":1078,"rn2k":1079,"2K5/8/":1080,"rnbqkbnr/pppp1ppp/":1081,"2/p7/":1082,"n2/8/":1083,"K1 b - - 0 1":1084,"0 Black <MOVE_SEP> b":1085,"b1d":1086,"8b8\n":1087,"3R4 w - - ":1088,"3 8":1089,"5 Black <MOVE_SEP> b":1090,"2/PPP":1091,"PPP1PPPP/R":1092,"3p3/":1093," Kkq - ":1094,"1r1k1/":1095,"2P2N":1096,"5g4\n":1097,"7K b - - ":1098,"4 7":1099,"8c6\n":1100,"3PP1/":1101,"2P1P/":1102,"1R/":1103,"4f3\n":1104,"BP/R1B":1105,"3PP/":1106,"1 Black <MOVE_SEP> b":1107,"PPP2PPP/R":1108,"6 Black <MOVE_SEP> b":1109,"bnr/":1110,"3p1p/":1111,"2r1k":1112,"6c5\n":1113,"2q5/":1114,"p5/":1115,"2N1B":1116,"3rk1/":1117,"8/7k/":1118,"6h5\n":1119,"2/1PP":1120,"5e6\n":1121,"4P1P1/":1122,"2k2/":1123,"b3/":1124,"p2p/":1125,"7 Black <MOVE_SEP> b":1126,"BP":1127,"r1bqkbnr/pp":1128,"3PP3/":1129,"r2r":1130,"2p4/":1131,"9 Black <MOVE_SEP> b":1132,"3h4\n":1133,"4R3 b - - ":1134,"3/P1N":1135,"3RR":1136,"5b4\n":1137," b kq - ":1138,"4c3\n":1139,"B2/":1140,"2P4P/":1141,"1p2p3/":1142,"K1 w - - 0 1":1143,"r2/":1144,"6B":1145,"1k6/8/":1146,"4e3\n":1147,"8 Black <MOVE_SEP> b":1148,"4R3 w - - ":1149,"2B1/":1150,"4p2/":1151,"8f7\n":1152,"2P5/8/":1153,"4b5\n":1154,"3rk":1155,"B3/":1156,"1P5P/":1157,"p2q":1158,"q7/":1159,"r1bq":1160," White <MOVE_SEP> b1c3\n":1161,"PP1N":1162,"2pn":1163,"1pn2/":1164,"1P5/":1165,"2P/P":1166,"R/":1167,"0 White <MOVE_SEP> h":1168,"5d6\n":1169,"2p5/8/":1170,"1 White <MOVE_SEP> h":1171,"2P4/":1172,"5c6\n":1173,"r6":1174,"1PP1/R":1175,"0 Black <MOVE_SEP> a":1176,"4d3\n":1177,"4h5\n":1178,"1P4/":1179,"r3/":1180,"2PP1/R":1181,"8/4k3/":1182,"7K w - - ":1183,"0 Black <MOVE_SEP> h":1184,"0 White <MOVE_SEP> a":1185,"1 Black <MOVE_SEP> a":1186,"2P1N":1187,"3P3/":1188,"4K3 b - - ":1189,"1 Black <MOVE_SEP> h":1190,"2R2R":1191,"5 7":1192,"r1bqk2r/":1193,"1pN":1194,"1K2/":1195,"4 Black <MOVE_SEP> h":1196,"1 White <MOVE_SEP> a":1197,"5 Black <MOVE_SEP> h":1198,"2 Black <MOVE_SEP> h":1199,"3 Black <MOVE_SEP> h":1200,"2QR":1201,"PP1/R1B":1202,"6 Black <MOVE_SEP> h":1203,"1p1q":1204,"1f2\n":1205,"5 3":1206,"9 Black <MOVE_SEP> h":1207,"PPQ":1208,"7 Black <MOVE_SEP> h":1209,"1P1Q":1210,"p1pppp/":1211,"N1P/":1212,"rnbqkbnr/pp1ppppp/":1213,"3 White <MOVE_SEP> b":1214,"3p2p1/":1215,"7r":1216,"8 Black <MOVE_SEP> h":1217,"3e2\n":1218,"7e5\n":1219,"0 White <MOVE_SEP> b":1220,"1r2/":1221,"3d2\n":1222,"2pN":1223,"7P/8/":1224," q - ":1225,"5 White <MOVE_SEP> b":1226,"4 White <MOVE_SEP> b":1227,"2b1/":1228,"8c7\n":1229,"1K w - - ":1230,"1 White <MOVE_SEP> b":1231,"bp":1232,"6d7\n":1233,"3c4\n":1234,"2p1P":1235,"1p/8/":1236,"5q2/":1237,"5h4\n":1238,"2 White <MOVE_SEP> b":1239,"1Q1R":1240,"6 White <MOVE_SEP> b":1241,"5R2 b - - ":1242,"3P3P/":1243,"2n1p3/":1244,"qn":1245,"5g6\n":1246,"K1 w - - 1 2":1247,"1K b - - ":1248,"9 White <MOVE_SEP> b":1249,"5N2/":1250,"7 White <MOVE_SEP> b":1251,"6e7\n":1252,"1KB":1253,"1P3P2/":1254,"4g3\n":1255,"P5/":1256,"8 White <MOVE_SEP> b":1257,"QKB1R b KQkq - ":1258,"1q6/":1259,"5R2 w - - ":1260,"PPPP1PPP/R":1261,"5N2/PPP":1262,"rnbq1rk1/":1263,"4k/":1264,"r2k1/":1265,"1pP/":1266,"QKB1R b KQkq - 0 ":1267,"4K3 w - - ":1268,"1pB":1269,"1p5/":1270,"1B/":1271,"NBQKB1R b KQkq - ":1272,"8 w - - 1 5":1273,"b1a":1274,"QKB1R w KQkq - ":1275,"P1P/R":1276,"6b5\n":1277,"2ppbp/":1278,"r2qk2r/":1279,"2n/":1280,"6 5":1281,"1r4k1/":1282," b KQ - 0 1":1283,"8 b - - 0 6":1284,"1P1/P":1285,"4R1K1 b - - ":1286,"8h8\n":1287,"2K2R":1288,"2 9":1289,"4R1K1 w - - ":1290,"4a5\n":1291,"1R4":1292,"5a4\n":1293,"1p3ppp/":1294,"3b4\n":1295," w KQ - 0 1":1296,"K1 b k - ":1297,"3/P7/":1298,"p1N":1299,"3PP1/R":1300,"2K/":1301,"3a4\n":1302,"1np1/":1303,"2pp1p/":1304,"3P1N":1305,"r3r1k1/":1306,"4 8":1307,"1n1/":1308,"2 Black <MOVE_SEP> a":1309,"5p2/p":1310,"PP3P":1311,"2R5 b - - ":1312,"1PPP/":1313,"3 Black <MOVE_SEP> a":1314,"5P2/8/":1315,"7f8\n":1316,"4k2/":1317," White <MOVE_SEP> h2h3\n":1318,"3K1/":1319,"2Pn":1320,"4 Black <MOVE_SEP> a":1321,"NBQKB1R w KQkq - ":1322,"5b6\n":1323,"6 Black <MOVE_SEP> a":1324,"p1r":1325,"4b3\n":1326,"QKB1R w KQkq - 0 ":1327,"N2/":1328,"2R5 w - - ":1329," w kq - ":1330,"6 6":1331,"5 Black <MOVE_SEP> a":1332,"3 White <MOVE_SEP> h":1333,"2 White <MOVE_SEP> h":1334,"6a5\n":1335,"4 White <MOVE_SEP> h":1336,"2 White <MOVE_SEP> a":1337,"PP/R1B":1338,"3p3p/":1339,"2P1/P":1340,"K1 w k - ":1341,"1h1\n":1342,"7 White <MOVE_SEP> h":1343,"5 White <MOVE_SEP> h":1344,"3 White <MOVE_SEP> a":1345,"5NP1/PP":1346,"6 White <MOVE_SEP> h":1347,"4P3/8/PPPP1PPP/R":1348,"7R w - - ":1349,"7R b - - ":1350,"4 White <MOVE_SEP> a":1351,"8 White <MOVE_SEP> h":1352,"5 White <MOVE_SEP> a":1353,"6 White <MOVE_SEP> a":1354,"1Pp/":1355,"8 Black <MOVE_SEP> a":1356,"1P2N":1357,"9 White <MOVE_SEP> h":1358,"7 Black <MOVE_SEP> a":1359,"K1 b - - 0 3":1360," KQk - ":1361,"r1b1k2r/pp":1362,"3P4/8/PPP1PPPP/R":1363,"9 Black <MOVE_SEP> a":1364,"3p4/3P":1365,"6f7\n":1366,"3R2K1 b - - ":1367,"r1b1k2r/":1368,"6pk/":1369,"4 <MOVE_SEP> e7e":1370,"7 White <MOVE_SEP> a":1371,"Q1RK1 b kq - ":1372,"7k/8/":1373,"8 b - - 1 4":1374,"pbp/":1375,"2RR":1376,"6K1/8/":1377,"3 9":1378,"3R2K1 w - - ":1379,"6 4":1380,"1P/8/":1381,"6g7\n":1382,"pp1n":1383,"K1 w kq - 0 1":1384,"8 White <MOVE_SEP> a":1385,"1BQ":1386,"3f2\n":1387,"8h7\n":1388,"2/1P6/":1389,"3p4/3P4/":1390,"9 White <MOVE_SEP> a":1391,"2K2/":1392,"2f1\n":1393,"2p1n":1394,"1p1p1/":1395,"P2B":1396,"1K6/8/":1397,"5 8":1398,"8b7\n":1399,"1Pn":1400,"1P2P/":1401,"8 b - - 1 5":1402,"4RR":1403,"6c7\n":1404,"3k2/":1405,"6q1/":1406,"3g2\n":1407," Q - ":1408,"1r3/":1409,"K1 w - - 0 3":1410,"P2/R":1411,"1c2\n":1412,"3c2\n":1413,"2P3P1/":1414,"p4p2/":1415,"3 <MOVE_SEP> d7d":1416,"8 w - - 1 4":1417,"7q/":1418,"5 2":1419,"1p2n":1420,"5r/":1421,"PP2B":1422,"P1Q":1423,"1h2\n":1424,"1P2PP":1425,"1p2P":1426,"2N3P1/":1427,"3P2P1/":1428,"5k/":1429,"5ppp/":1430,"4 <MOVE_SEP> c7c":1431,"r1q":1432,"2N1PN":1433,"b7/":1434,"1p3pp1/":1435,"PP1P":1436,"6P1/8/":1437,"1b/":1438,"2f4\n":1439,"5NP1/":1440,"4K1/":1441,"p1B":1442,"8 w - - 0 6":1443,"6PK/":1444,"2r1/":1445,"3p4/2PP4/":1446,"6 7":1447,"1R w - - ":1448,"1r4/":1449,"2P2P":1450,"7f7\n":1451,"7g8\n":1452,"1n1p/":1453,"PQ":1454,"1P2Q":1455,"2f2\n":1456,"pp1b":1457,"1q1rk1/":1458,"P6P/":1459,"6pP/":1460,"r1r":1461,"K1 b - - 1 2":1462,"R7 b - - ":1463,"1PK":1464,"B7/":1465,"1R3R":1466,"pQ":1467,"7e7\n":1468,"ppq":1469,"PP3PPP/R":1470,"1b2\n":1471,"Pb":1472,"7f5\n":1473,"4PN2/PP":1474,"1P1p":1475,"2e2\n":1476,"PP1B":1477,"5p2/8/":1478,"R7 w - - ":1479,"R4R":1480,"7 6":1481,"7B/":1482,"1R6 b - - ":1483,"7 5":1484,"rnbqkb1r/":1485,"6Pp/":1486,"8/7p/":1487,"4PP/":1488,"3P1/P":1489," White <MOVE_SEP> a2a3\n":1490,"r1bqkb1r/":1491,"8 w - - 3":1492,"1bppp/":1493,"6N1/":1494,"P5P1/":1495,"2PPP/":1496,"1Q/":1497,"2d2\n":1498,"P2P/":1499,"2g1\n":1500,"2R/":1501,"p2p4/":1502,"pr":1503,"8 b - - 3":1504,"1p3n":1505,"1R6 w - - ":1506,"1r/pp":1507,"8 w - - 1 6":1508,"rnbqkb1r/pppp":1509,"7d7\n":1510,"pR":1511,"2B/":1512,"2p1P3/":1513,"2k3/":1514,"1p2q":1515,"3K2/":1516,"2r2/":1517,"pP/":1518,"1R b - - ":1519,"7b/":1520,"R5":1521,"p2/p":1522,"1b1n":1523,"1Pb":1524,"2Q/":1525,"1N6/":1526,"3e5\n":1527,"1b3/":1528,"6k":1529," Black <MOVE_SEP> a7a6\n":1530,"5r1k/":1531,"1QN":1532,"5h6\n":1533,"2PQ":1534,"5n2/8/":1535,"8/3k4/":1536,"r7 b - - ":1537,"7b5\n":1538,"0 10":1539,"2R1R":1540,"2p2n2/":1541,"1p3p2/":1542,"2g2\n":1543,"7g7\n":1544,"QK2R b KQkq - ":1545,"2K5 b - - ":1546,"7 7":1547,"1d3\n":1548,"r3k2r/pp":1549,"PP1PPPPP/R":1550,"2p2p":1551,"1P3N":1552,"1p1N":1553,"pp6/":1554,"5np1/":1555,"6e4\n":1556,"r1bq1rk1/pp":1557,"1N1P/":1558,"4 9":1559,"p1p5/":1560,"2n2n2/":1561,"2pq":1562,"4P1P/":1563,"p6P/":1564,"r1b1kb1r/pp":1565,"8/6p1/":1566,"p2r":1567,"PPPPPP/R":1568,"5N2/PPPPPPPP/R":1569,"3B1/":1570,"1n6/":1571,"6b7\n":1572,"3Pp3/":1573,"Pp/":1574,"8/5p2/":1575,"1N3/":1576,"1P1R":1577,"3r1rk1/":1578,"4h3\n":1579,"p1k":1580,"1P1P1/":1581,"ppn":1582,"6 8":1583,"2b4\n":1584,"3 <MOVE_SEP> g8f":1585,"2KR3R":1586,"r7 w - - ":1587,"QKBNR b KQkq - ":1588,"7e8\n":1589,"3b2\n":1590,"p2N":1591,"1p2/p":1592,"KP/":1593,"P2p":1594,"6n1/":1595,"3PPP/":1596,"6 <MOVE_SEP> d2d":1597,"q/":1598,"5 9":1599,"5K1/":1600,"4PP1/":1601,"B4/":1602,"P2N":1603,"7d8\n":1604,"2r2rk1/":1605,"2p2p2/":1606,"1 10":1607,"r4/":1608,"8/5k":1609,"2n2n":1610,"2K5 w - - ":1611,"8q\n":1612,"1QR":1613,"1k3/":1614,"2c2\n":1615,"8/4p3/":1616,"rnbqk1nr/pp":1617,"8a8\n":1618,"b4/":1619,"7c7\n":1620,"2r5 b - - ":1621,"3K4 b - - ":1622,"1N1/":1623,"2p2p/":1624,"1B3/":1625,"5a6\n":1626,"1pk":1627,"rb":1628,"R1/":1629,"Pn":1630,"B1/R":1631,"4a3\n":1632,"6R1 b - - ":1633,"Q1/":1634,"3e3\n":1635,"2e1\n":1636,"7 8":1637,"QKBNR w KQkq - 0 ":1638,"8 b - - 0 3":1639,"R3K":1640,"p3n":1641,"2b/":1642,"PPN":1643,"3p4/8/":1644,"p4ppp/":1645,"BN":1646,"6R1 w - - ":1647,"2P2P2/":1648,"1N2/":1649,"4 <MOVE_SEP> g8f":1650,"pp1p/":1651,"2d1\n":1652,"2/P1N":1653,"1q\n":1654,"r3kb1r/":1655,"1K3/":1656,"1n/":1657,"6h7\n":1658," w - - 0 3":1659,"3p1b2/":1660,"rq":1661,"3h2\n":1662,"p2B":1663,"ppbp/":1664,"1e3\n":1665,"P1P5/":1666,"3r1/":1667,"k3/":1668,"2r5 w - - ":1669,"r2qkb1r/pp":1670," b Kkq - ":1671,"6e6\n":1672,"6p1/8/":1673,"7 4":1674,"1n3/":1675,"3f3\n":1676,"8q <MOVE_SEP> ":1677,"PP6/":1678,"2/PB":1679,"p1p1/":1680,"8 w - - 0 3":1681,"p6/":1682,"4 <MOVE_SEP> d7d":1683,"6 <MOVE_SEP> b1c":1684,"2N/":1685,"8/2k5/":1686,"2R5/8/":1687,"3P1B":1688,"2K1R":1689,"6 3":1690,"7R/8/":1691,"4K2/":1692,"1/P7/":1693,"p3q":1694,"K1 b kq - 0 1":1695,"5RK1 w - - ":1696,"1p1k":1697,"3K4 w - - ":1698,"7p/8/":1699,"np1/":1700,"3d3\n":1701,"8 b - - 2 5":1702,"5P1p/":1703,"6n":1704,"2P/R":1705," w KQ - 1 1":1706,"5pp/":1707,"1N/":1708,"pk":1709,"1pbp/":1710,"rnb1kb1r/pp":1711," b - - 0 3":1712,"5P1K/":1713,"QKBNR w KQkq - ":1714,"5R2/8/":1715,"rnbqkbnr/pppp1ppp/4p3/8/":1716,"P/8/":1717,"3d5\n":1718,"4P2p/":1719,"1K6 b - - ":1720,"3 <MOVE_SEP> e7e":1721,"3K/":1722,"2B2/":1723,"7c8\n":1724,"1pn1p/":1725,"6f6\n":1726,"6d4\n":1727,"r2r2k1/":1728,"8/8/8/8/8/":1729,"2P5/8/PP1PPPPP/R":1730,"8 6":1731,"2P/8/":1732,"4P3/P":1733,"QKBNR b KQkq - 0 ":1734,"P7/8/":1735,"pP3/":1736,"1q <MOVE_SEP> ":1737,"1qn":1738,"1p1B":1739,"2r3/":1740,"3r4 b - - ":1741,"2K3/":1742,"6d6\n":1743,"2b2/":1744,"r2qkb1r/":1745,"1NB":1746,"6 9":1747," w KQkq - 1 1":1748,"8/8/4k3/":1749,"1p1p4/":1750,"8 7":1751,"rnbqkb1r/pppppppp/":1752,"p5P1/":1753,"p4pp1/":1754,"2 10":1755,"6 <MOVE_SEP> e2e":1756,"3g3\n":1757,"1p5P/":1758,"2c1\n":1759,"8/4k":1760,"1r1k/":1761,"1N2/PP":1762,"1PR":1763,"1bq":1764,"7g5\n":1765,"rnbqk2r/":1766,"8/8/5k2/":1767,"8 b - - 1 6":1768,"3b1/":1769,"2h3\n":1770,"2g4\n":1771,"4e4\n":1772,"rnbqkbnr/pp1ppppp/8/":1773,"2N1P3/":1774,"6 <MOVE_SEP> g1f":1775,"8d6\n":1776,"5p1P/":1777,"3 10":1778,"K1 w - - 1 1":1779,"4K2R":1780,"p3k":1781,"5e5\n":1782,"7 9":1783,"rn1qkb1r/pp":1784,"Q1B":1785,"p2pp":1786,"8 w - - 2 5":1787,"6N":1788,"PP1PPP/R":1789,"3P1P/":1790,"Q1RK1 w kq - ":1791,"1P2p":1792,"8 b - - 2 4":1793,"P1/R":1794,"6 <MOVE_SEP> c2c":1795,"8 5":1796,"P3B":1797,"5p1k/":1798,"8/1k":1799,"PBP/R":1800,"K1 b - - 1 1":1801,"p3pp":1802,"2p4P/":1803,"7b7\n":1804,"2Pp/":1805,"3R/":1806,"1P2PN":1807,"1PP5/":1808,"4pn2/8/":1809,"3r4/8/":1810,"4RK":1811,"3R4/8/":1812,"8 8":1813,"1K6 w - - ":1814,"2b2\n":1815,"1q/":1816,"6g6\n":1817,"5r2/8/":1818,"r5/":1819,"8 b - - 0 7":1820,"3r4 w - - ":1821,"3b1":1822,"7Q":1823,"2N5/PPP":1824,"3R1K":1825,"3pp3/":1826,"1BP":1827,"1PP1/R1B":1828,"p1pppp/8/":1829,"2N4P/":1830,"2bpp1/":1831,"1P1K":1832,"rnbq1rk1/pp":1833,"2n1/":1834,"3RK2R":1835,"PPP/RNB":1836,"4f4\n":1837,"4R3/8/":1838,"3c3\n":1839,"3a2\n":1840,"6a7\n":1841,"5RK1 b - - ":1842,"8e6\n":1843,"4d4\n":1844,"3 <MOVE_SEP> c7c":1845,"1R1R":1846,"4r3/8/":1847,"r2qk2r/pp":1848,"2p1/P":1849,"2rq":1850,"1pp5/":1851,"5PP/":1852,"3p3P/":1853,"NBQKBNR w KQkq - ":1854,"2p5/2P":1855,"8/p7/":1856,"9 7":1857,"4r3 b - - ":1858,"4R/":1859,"PR":1860,"8 w - - 2 4":1861,"p2k":1862,"5d5\n":1863,"k7/8/":1864,"P1R":1865,"2N1/":1866,"2PP1/R1B":1867,"6c6\n":1868,"QN":1869,"7n/":1870,"2KR1B":1871,"5f5\n":1872,"BB":1873,"7N/":1874,"2pP/":1875,"1K1 w - - 0 2":1876," w Kkq - ":1877,"8/8/8/8 w - - ":1878,"9 8":1879,"5N2/PPP1PPPP/R":1880,"1Q1/":1881,"4p2P/":1882,"5KP1/":1883,"1PP/R":1884,"P6/":1885,"1p1/8/":1886,"P1/PP2PP":1887,"3r2/":1888,"1p1r":1889,"2/P1P":1890,"1BN":1891,"8 b - - 4":1892," b k - ":1893,"2q/":1894,"1K1 b - - 0 2":1895,"9 6":1896,"P3/P":1897,"7p/7P/":1898,"7h5\n":1899,"1p3p1p/":1900,"r3kb1r/pp":1901,"5K1P/":1902,"r1bqk1nr/pp":1903,"q1/":1904,"5r2 b - - ":1905,"2pB":1906,"R3R":1907,"rnbqkb1r/pppp1ppp/":1908,"1R2R":1909,"p1bppp/":1910,"5N1P/":1911,"K3/":1912,"3P1B2/":1913,"p6":1914,"4r3 w - - ":1915,"8 9":1916,"2PPPP/R":1917,"8/2k":1918,"8/1p6/":1919,"2p5/4P3/":1920,"4k2r/":1921,"1a1\n":1922,"5k2/p":1923,"4c4\n":1924,"P2Q":1925,"PP2PPPP/R":1926,"4K/":1927,"N2K":1928,"4 10":1929,"N4/":1930,"p1R":1931,"N7/":1932,"7h8\n":1933,"8/3k":1934,"6 2":1935,"1f4\n":1936,"5r2 w - - ":1937,"5c5\n":1938,"1P1/8/":1939,"p3p2p/":1940,"8/8/6k1/":1941,"7r b - - ":1942,"r4k":1943,"P1P/R1B":1944,"1r2k":1945,"k4/":1946,"2P1p3/":1947,"1KR":1948,"1p/P":1949,"1P1/R":1950,"1pR":1951,"r1b1kb1r/":1952,"1P1n":1953,"rnbqkbnr/ppp2ppp/":1954,"2pPp":1955,"pb1/":1956,"1p4P1/":1957,"3Pp":1958,"6kp/":1959,"BR":1960,"3n/":1961,"p/8/":1962,"5 10":1963,"4r1/":1964,"8 w - - 3 5":1965,"1R6/8/":1966,"qk2r/":1967,"1B1R":1968,"rnbqkbnr/pp1p1ppp/":1969,"9 9":1970,"8/8/3k4/":1971,"1B1N":1972,"1R1":1973,"Q3/":1974,"4g4\n":1975,"1r3rk1/":1976,"PK":1977,"2r5/8/":1978,"4b1":1979,"2np":1980,"6 <MOVE_SEP> g2g":1981,"r6k/":1982,"NBQKBNR b KQkq - 0 1 Black <MOVE_SEP> e":1983,"r2qr1k1/":1984,"7r w - - ":1985,"p4P":1986,"4p3/P":1987,"1K1NR":1988,"5g5\n":1989,"Q4/":1990,"8/R":1991,"PPB":1992,"2p1p2p/":1993,"8/8/4K3/":1994,"5n1p/":1995,"3r/pp":1996,"8 b - - 2 6":1997," b - - 1 2":1998,"P4P":1999,"QK2R w KQkq - ":2000,"2n1pn2/":2001,"2PK":2002,"7b8\n":2003,"1pb1/":2004,"pP6/":2005," b KQkq - 1 1":2006,"q2/":2007," w KQk - ":2008,"r2k":2009,"3N/":2010,"6R1/8/":2011,"2b1\n":2012,"QB":2013,"1n1ppp/":2014,"4e5 <MOVE_SEP> f":2015,"p2R":2016," w k - ":2017,"1p3P":2018,"4B1/":2019,"0 11":2020,"5PP":2021,"2P1Q":2022,"5K/":2023,"3PN":2024,"rnbqkb1r/pp3ppp/":2025,"1P3/P":2026,"1r6 b - - ":2027,"3b3\n":2028,"3pN":2029,"1p2pn2/":2030,"8/1k6/":2031,"6r1/8/":2032,"1r6/8/":2033,"6 <MOVE_SEP> h2h":2034," Black <MOVE_SEP> g8f6\n":2035,"rn1q1rk1/":2036,"4b1/":2037,"p4n":2038,"PP2N":2039,"2p1/8/":2040,"1r1q":2041,"9 5":2042,"1P1b":2043,"2qn":2044,"p3r":2045,"2/PPP2PPP/R":2046,"1P2R":2047,"pn2/":2048,"1KBNR":2049,"3 <MOVE_SEP> g7g":2050,"1R1/":2051,"3Pn":2052,"NB1KB1R":2053,"PP2/":2054," w - - 1 2":2055,"2n3p1/":2056,"1p2p2p/":2057,"2B1P3/":2058,"1k1r":2059,"8 w - - 4":2060,"2N2/":2061,"P3P3/":2062,"K1 w - - 1 3":2063,"5k1p/":2064,"P1/8/":2065,"3 <MOVE_SEP> a7a":2066,"P1P1/":2067,"8 w - - 1 7":2068,"1 White <MOVE_SEP> e2e4\n":2069,"rnbqkb1r/pppppppp/5n2/8/":2070," White <MOVE_SEP> b1d":2071,"3P3p/":2072,"BP/RNB":2073,"r1b2rk1/pp":2074,"2 w - - 0 3":2075,"PPPN":2076,"3pbp/":2077,"K7/8/":2078,"1 White <MOVE_SEP> d2d4\n":2079,"6 <MOVE_SEP> a2a":2080,"6 10":2081,"5N2/PPPP1PPP/R":2082,"p3pn2/":2083,"2r1k1/":2084,"6b6\n":2085,"p2/8/":2086," Black <MOVE_SEP> a7a5\n":2087,"8 b - - 1 3":2088,"1 11":2089,"d2d":2090,"2Pb":2091,"1pbppp/":2092,"rnbqkb1r/pp1ppppp/":2093,"4pp2/":2094,"QR1":2095,"e2e":2096,"1p1pp":2097,"1P5p/":2098,"rnbqkbnr/ppp1pppp/8/":2099,"1bpp1/":2100,"2N1P/":2101,"PP3PPP/R1B":2102,"5 <MOVE_SEP> e2e":2103,"P3p":2104,"5 <MOVE_SEP> g1f":2105,"p4p1p/":2106,"P4P2/":2107,"2P1p":2108,"1bn":2109,"5PPP/":2110,"3 <MOVE_SEP> b8c":2111,"8 w - - 0 7":2112,"2NP":2113,"3PP1/R1B":2114,"7 10":2115,"8/2p":2116,"1bp/":2117,"Q2/":2118,"1r6 w - - ":2119,"1P2/R":2120,"2a3\n":2121,"3r3k/":2122,"3/8/PPP2PPP/R":2123,"1k4/":2124,"3Q/":2125,"rnbqkbnr/pppppppp/8/8/8/8/PPPPPPPP/RNBQKBNR w KQkq - 0 1 White <MOVE_SEP> d2d4\n":2126,"rnbqkbnr/pppppppp/8/8/3P4/8/PPP1PPPP/R":2127,"8/8/8/8 b - - ":2128,"1P2P3/":2129,"8/8/2k":2130,"rnbqkbnr/pppppppp/8/8/8/8/PPPPPPPP/RNBQKBNR w KQkq - 0 1 White <MOVE_SEP> e2e4\n":2131,"rnbqkbnr/pppppppp/8/8/4P3/8/PPPP1PPP/R":2132,"4P3/8/PPPP1PPP/RNBQKBNR w KQkq - 0 ":2133,"8 4":2134,"8/8/3k":2135,"1P2/P":2136,"8/5pk1/":2137,"2b1p3/":2138,"pp2p":2139,"2h2\n":2140,"1k2r/":2141,"rnbqkbnr/pppp1ppp/8/4p3/":2142,"2p/8/":2143,"n7/":2144,"5d3\n":2145,"2R1K2R":2146,"7a6\n":2147,"n4/":2148,"1pr":2149,"2B3/":2150,"R3/":2151,"2b3/":2152,"8/8/5K2/":2153,"P1n":2154,"8a7\n":2155,"8a6\n":2156,"8 b - - 3 5":2157,"p3B":2158," White <MOVE_SEP> a2a4\n":2159,"4b4\n":2160,"3K3/":2161,"4d6\n":2162,"1P6/8/":2163,"7h7\n":2164,"5r1/":2165,"2p1q":2166,"rnbqkbnr/pp2pppp/":2167,"1pp2ppp/":2168,"4/P1N":2169,"2P1/8/":2170,"5R/":2171,"1pp2/":2172,"2N1PN2/PP":2173,"rn1qkb1r/":2174,"2Q1/":2175,"K1 b kq - 1 1":2176,"1ppp1p/":2177,"4r2k/":2178,"8/8/3K4/":2179,"1p/7P/":2180,"3 <MOVE_SEP> h7h":2181,"3R3K":2182,"1p1R":2183,"r1bqr1k1/":2184,"8 w - - 2 6":2185,"5 <MOVE_SEP> d2d":2186,"2P4p/":2187,"3N1/":2188,"b1p1/":2189,"3KB":2190,"3PB":2191,"3Q1R":2192,"8 w - - 3 6":2193,"1p2bppp/":2194,"5b5\n":2195,"2p3p":2196,"2B1R":2197,"r6r/":2198,"1p2/P":2199,"P2R":2200,"P2/8/":2201,"2NP1/":2202,"2 w - - 0 2":2203,"rn1qk2r/":2204,"2 b - - 0 3":2205,"R4/":2206,"NBQKBNR b KQkq - 0 1 Black <MOVE_SEP> c":2207,"1pPp":2208,"4P1p1/":2209,"P1b":2210,"PBP/R1B":2211,"1q1/":2212,"6K1 b - - 0 3":2213,"4rrk1/":2214,"8 w - - 3 4":2215,"QK1NR b KQkq - ":2216,"b2p/":2217,"PPP1PP":2218,"4PP2/":2219,"1pk1/":2220,"3R1/":2221,"3g5\n":2222,"K1 b - - 2 2":2223,"7 3":2224,"5 <MOVE_SEP> g2g":2225,"p1Q":2226,"3B/":2227,"8 10":2228,"PP1Q":2229,"6KP/":2230,"q3/":2231,"8/8/2k5/":2232,"3QR":2233,"3K2R b KQ - ":2234,"pp3ppp/":2235,"2N5/PPPP":2236,"3 <MOVE_SEP> f8e":2237,"K1 w - - 2 2":2238,"2K4/":2239,"R2":2240,"2N3/":2241,"4d2\n":2242,"2np1n":2243,"3rr1k1/":2244,"rnbqkbnr/pp1ppppp/2p5/8/":2245,"8/k":2246,"K2R":2247,"8/8/4k":2248,"8 b - - 3 4":2249,"pp2/":2250,"P4N":2251,"rnb1k2r/pp":2252,"1p4pp/":2253,"2 11":2254,"2R2K":2255,"1R3":2256,"7B":2257,"4B1P1/":2258,"8/8/8 b - - 1":2259," Kk - ":2260,"3 <MOVE_SEP> b7b":2261,"5P2/P":2262," White <MOVE_SEP> h2h4\n":2263,"5 <MOVE_SEP> c2c":2264,"8/8/8 w - - 1":2265,"8f5\n":2266,"rnbqkbnr/pp3ppp/":2267,"9 10":2268,"R2/":2269,"2 b - - 0 2":2270,"NBQK2R b KQkq - ":2271,"PP2Q":2272," b KQk - ":2273,"p2/P":2274,"rr":2275,"1p1P/":2276,"2r1k/":2277,"4b1p1/":2278,"3b5\n":2279," Black <MOVE_SEP> b8c6\n":2280,"3p1p2/":2281,"3P1P2/":2282,"1NP1/":2283,"PPP1N":2284,"3p2P1/":2285,"p3N":2286,"3 11":2287,"PP3P2/":2288,"4R2K":2289,"4p1P1/":2290,"1PB1/":2291,"1PBP/R":2292,"5Pp1/":2293,"1K5/":2294,"5e3\n":2295,"P2P4/":2296,"2a2\n":2297,"7Q/8/":2298,"2n1b":2299,"6 <MOVE_SEP> b2b":2300,"1pP4/":2301,"4f6\n":2302,"3p4/2PP":2303,"1P1P/R":2304,"rnb2rk1/":2305,"5pP1/":2306,"2R1K":2307,"7K/8/":2308,"1p1P4/":2309,"3h3\n":2310,"1PpP":2311,"7a7\n":2312,"p7/8/":2313,"1nb":2314,"r1b1r1k1/":2315,"QK2R w KQkq - 0 ":2316,"3b/":2317,"pk1/":2318,"1pQ":2319,"2R2K1 w - - ":2320,"3B3P/":2321,"2rq1rk1/":2322,"p1P/":2323,"6g4\n":2324,"6r1 b - - ":2325,"R7/8/":2326,"1pP5/":2327,"QK2R b KQkq - 0 ":2328,"1p2k":2329,"4p3/4P3/":2330,"r2b":2331,"5k2/8/8/":2332,"2p3P1/":2333,"2N2N2/PPP":2334,"8r":2335,"4e6\n":2336,"1K1 b - - 0 1":2337,"2R2K1 b - - ":2338,"5f3\n":2339,"6b4\n":2340,"6K/":2341,"1ppb":2342,"6rk/":2343,"1k/8/":2344,"1PK1/":2345,"p1P5/":2346,"2P2P/":2347,"5kp1/":2348,"PB1/":2349,"1p2P3/":2350,"2nb":2351,"8/8/1k":2352,"Pp6/":2353,"P1p/":2354,"1 White <MOVE_SEP> c2c4\n":2355," w - - 1 3":2356,"4b2p/":2357,"1p6/1P":2358,"P2/P":2359,"2R1/":2360,"8b6\n":2361,"3/P3P":2362,"1ppn":2363,"6r1 w - - ":2364,"6h6\n":2365,"2p2/p":2366,"rnbqkb1r/ppp2ppp/":2367,"1R2K":2368,"1 White <MOVE_SEP> g1f3\n":2369,"5h5\n":2370,"1BR":2371,"5d7\n":2372,"2p1pn":2373,"8/5k2/8/":2374,"1P2/8/":2375,"rnbqkb1r/pp1p1ppp/":2376,"3n1/":2377,"1P3PP1/":2378,"1k1r/":2379,"2BR":2380,"4pn1p/":2381,"4h4\n":2382,"1P1P4/":2383,"Pq":2384,"2p1pn2/":2385,"q7 b - - ":2386,"8/8/7p/":2387,"2BPPP/R":2388,"g1f":2389,"3Q1/":2390,"N2K2R":2391,"R4K":2392,"1PPB":2393,"2NQ":2394,"1r2k1/":2395,"3r1k2/":2396,"c2c":2397,"1K4/":2398,"1p2pp":2399,"2B4/":2400,"p4r":2401,"6R/":2402,"rnbqkb1r/pp2pppp/":2403,"8/6K1/":2404,"r3q":2405,"1BB":2406,"8/1b":2407,"1p3k":2408,"1R3K":2409,"p5pp/":2410,"4B2P/":2411,"2p2P":2412,"p2Q":2413,"rn3rk1/":2414,"P3/8/":2415,"2r1r1k1/":2416,"4 11":2417,"1Q3/":2418,"5p2/P":2419,"PK1/":2420,"5 <MOVE_SEP> b1c":2421,"6K1 w - - 0 3":2422,"4R1/":2423,"1P1p/":2424,"2/PP3PPP/R":2425,"8/5K2/":2426,"4 <MOVE_SEP> a7a":2427,"8/1P":2428,"3Pp/":2429,"4b2/":2430,"3K2R w KQ - ":2431,"3p1b":2432,"b1q":2433,"5 <MOVE_SEP> a2a":2434,"N3R":2435,"rnbqkbnr/pppppppp/8/8/8/8/PPPPPPPP/RNBQKBNR w KQkq - 0 1 White <MOVE_SEP> c2c4\n":2436,"rnbqkbnr/pppppppp/8/8/2P5/8/PP1PPPPP/R":2437,"5N2/PP2PPPP/R":2438,"4b3/8/":2439,"r1r3k1/":2440,"8/8/8/5N2/PPPPPPPP/R":2441,"rnbqkbnr/pppppppp/8/8/8/5N2/PPPPPPPP/R":2442,"rnbqkbnr/pppppppp/8/8/8/8/PPPPPPPP/RNBQKBNR w KQkq - 0 1 White <MOVE_SEP> g1f3\n":2443,"NBQKB1R b KQkq - 1 ":2444,"rnbqkbnr/pppppppp/8/8/8/5N2/PPPPPPPP/RNBQKB1R b KQkq - 1 ":2445,"5 11":2446,"8/6k1/8/":2447,"1p3p2/p":2448,"b1p/":2449,"1PP2/":2450,"p1ppp/":2451," Black <MOVE_SEP> d7d5\n":2452,"5Q2/8/":2453,"rn1qkbnr/pp":2454,"2RQ1R":2455," White <MOVE_SEP> b1d2\n":2456,"PP1P/R":2457,"8/8/2K5/":2458,"1PPN":2459,"5PB1/":2460,"1p3/8/":2461,"1Q2/":2462,"4K1P1/":2463,"2n4p/":2464,"PB/":2465,"1P1PPP/R":2466,"2B2R":2467,"5 <MOVE_SEP> h2h":2468,"4B3/8/":2469,"3NB":2470,"3a3\n":2471,"r3k3/":2472,"2Q1B":2473,"4Q/":2474,"4 <MOVE_SEP> h7h":2475,"1PP/R1B":2476,"p4k":2477,"3b2/":2478,"4KP2/":2479,"2rr2k1/":2480,"5c3\n":2481,"4 <MOVE_SEP> g7g":2482,"8/8/6K1/":2483,"1PP1N":2484,"3p1n2/":2485," Qkq - ":2486,"2h1\n":2487,"r4k2/":2488,"8 w - - 5":2489,"5B1/":2490,"p7/P7/":2491,"2n3/":2492,"1K1 w - - 0 1":2493,"6 <MOVE_SEP> f1e":2494,"8 b - - 5":2495,"5e7\n":2496,"8/2R":2497,"1R2/":2498,"3P2p1/":2499,"1P3p":2500,"p2pp1/":2501,"1p2/8/":2502,"2NP1N":2503,"1P2K":2504,"2PPP3/":2505,"q7 w - - ":2506,"3PP/R":2507,"4e2\n":2508,"1p6/8/":2509,"2p2np1/":2510,"3R2/":2511,"8 b - - 1 7":2512,"2p1N":2513,"1QB":2514,"4p3/2P5/":2515," b - - 1 3":2516,"8/8/6p1/":2517,"2N2NP1/PP":2518,"4c6\n":2519,"K1 b - - 2 1":2520,"2q1/":2521,"6a6\n":2522,"2p2P2/":2523,"3B2/":2524,"3n2/":2525,"pp2b":2526,"3PP3/8/PPP2PPP/R":2527,"4d5 <MOVE_SEP> e":2528,"6k/":2529,"b1pp/":2530,"4a4\n":2531,"N1Q1R":2532,"r7/8/":2533,"8 w - - 1 3":2534,"6c4\n":2535,"p4n2/":2536,"8g8 <MOVE_SEP> f":2537,"5bk1/":2538,"3B4/8/":2539,"4/8/PP2PPPP/R":2540,"p2P4/":2541,"6 11":2542,"3p2p/":2543,"PP3/":2544,"0 12":2545,"2r1k2r/":2546,"PPBP/R":2547,"2r4k/":2548,"p3/8/":2549,"4 <MOVE_SEP> b7b":2550,"1pqn":2551,"1PP1B":2552,"bp2/":2553,"5NP1/PP2PP":2554,"2RK":2555,"3p1n":2556,"PPP/R1B1K2R":2557,"N2KB1R":2558,"k1p/":2559,"8 b - - 4 5":2560,"3c5\n":2561,"K1 w - - 2 1":2562,"1RR":2563,"7 <MOVE_SEP> h2h":2564,"7 11":2565,"1K1/8/":2566,"5e4 <MOVE_SEP> f":2567,"pp5p/":2568," w kq - 0 1":2569,"5a5\n":2570,"7 2":2571,"8 b - - 3 6":2572,"1P2P3/P":2573," b K - 0 1":2574,"2PpP":2575,"2QKB1R b KQkq - ":2576,"NP1/":2577,"5c7\n":2578,"4c2\n":2579,"K1 b - - 1 3":2580,"5pp":2581,"4p1p/":2582,"4rk2/":2583,"Q7/8/":2584,"3B1N":2585,"Pr":2586,"5N2/PP1PP":2587,"3pN3/":2588,"1b1r/":2589,"pp1q":2590,"4B/":2591,"2kr1b":2592," White <MOVE_SEP> g1f3\n":2593,"5d4 <MOVE_SEP> c":2594,"6e5 <MOVE_SEP> f":2595,"1 12":2596,"NBQK2R w KQkq - ":2597,"1R3/":2598,"6 <MOVE_SEP> f2f":2599,"4d5 <MOVE_SEP> c":2600,"2K4R":2601,"3b4/8/":2602,"1c4\n":2603,"p3bppp/":2604,"3R3/":2605,"8g8 <MOVE_SEP> e":2606,"r1k":2607,"9 4":2608,"2p/7P/":2609,"n1p":2610,"5 <MOVE_SEP> b2b":2611,"1Q1B":2612,"2/P4":2613,"1b3\n":2614,"3P/8/":2615,"QK1NR w KQkq - ":2616,"3P/R":2617,"3f5\n":2618,"4k3/8/8/":2619,"1 Black <MOVE_SEP> g8f6\n":2620,"6K1 b - - 0 4":2621,"6 <MOVE_SEP> e1g":2622,"6p1/6P1/":2623,"2N2N1P/":2624,"P/6P1/":2625,"4N2/":2626,"3k3/":2627,"1d4\n":2628,"2q2/":2629,"3P1/8/":2630,"4B2/":2631,"r1n":2632,"8/1R":2633,"2kr4/":2634,"rnbqkbnr/pp1p1ppp/4p3/":2635,"4Q3/8/":2636,"r2n":2637,"q1pp":2638,"PP1PPP/R1B":2639,"2P3p1/":2640," w K - 0 1":2641,"8/2R5/":2642,"5N2/PP1PPPPP/R":2643,"1q6 b - - ":2644,"3Q4/8/":2645,"3 <MOVE_SEP> f7f":2646,"rnbqkbnr/":2647,"bpp":2648,"4bppp/":2649,"8d8 <MOVE_SEP> d":2650,"6e5 <MOVE_SEP> d":2651,"r1k/":2652,"2P1/R":2653,"2Q2/":2654,"pp3pp1/":2655,"6k1/8/8/":2656,"3P4/8/PPP1PPPP/RNBQKBNR w KQkq - 0 ":2657,"5N2/PPP2PPP/R":2658,"2P2p":2659,"1Pq":2660,"7q b - - ":2661,"8 11":2662,"3q/":2663,"P1/PB":2664,"1P6/P":2665,"8g8 <MOVE_SEP> g":2666,"4 <MOVE_SEP> f7f":2667,"3b3p/":2668,"p3P3/":2669,"6Q1/8/":2670,"b1e":2671,"6f4\n":2672,"8/8/P":2673,"1p4p":2674,"5pb1/":2675,"B1N":2676,"3R3R":2677,"1r5k/":2678,"1R1Q1R":2679,"pp3/":2680,"6r/":2681,"7 <MOVE_SEP> a2a":2682,"P1p5/":2683,"BQ":2684,"8/8/7k/":2685,"1q2/":2686,"p/7P/":2687,"6k1/5p2/":2688,"2N5/PPPP1PPP/R1B":2689," b kq - 0 1":2690,"NBQK2R w KQkq - 0 ":2691,"rnbqkbnr/ppp2ppp/4p3/":2692,"2QN":2693,"8 b - - 2 7":2694,"5b1/":2695,"2p1B":2696,"6k1/6p1/":2697,"5R1/":2698,"Pp1/":2699,"q4/":2700,"2 12":2701,"1Q6/8/":2702,"8 w - - 4 5":2703,"8c5\n":2704,"3pn":2705,"4Pp2/":2706,"PP4P1/":2707,"2 <MOVE_SEP> h7h":2708,"bp1p/":2709,"p3/P":2710,"r1br2k1/":2711,"9 11":2712,"QK1NR w KQkq - 0 ":2713,"6P1/PP1PP":2714,"2rqk":2715,"1p2r":2716,"2R2/":2717,"1K1 w - - 1 2":2718,"3pB":2719,"5d4 <MOVE_SEP> e":2720,"k2/8/":2721,"8/4K3/":2722,"N1R":2723,"2k4/":2724,"4pp1/":2725,"bk1/":2726,"P2/R1B":2727,"1pk/":2728,"1d1 <MOVE_SEP> d":2729,"5f7\n":2730,"r1b3k1/":2731,"rnbqkb1r/pppp1ppp/4pn2/8/":2732,"1g5\n":2733,"4PB":2734,"5 <MOVE_SEP> h7h":2735,"4bpp1/":2736,"2Q5/8/":2737,"pn1p/":2738,"5r2/p":2739,"1Pp1/":2740,"P6p/":2741,"4f2\n":2742,"pp3p2/":2743,"8g8 <MOVE_SEP> d":2744,"2NR":2745,"PP1P1PPP/R":2746,"7q w - - ":2747,"p1n1p3/":2748,"2np4/":2749,"8d7 <MOVE_SEP> f":2750,"8e8 <MOVE_SEP> e":2751,"3p1/P":2752,"6K1 w - - 0 4":2753,"8/7P/":2754,"pb/":2755,"PpP":2756,"3B3/":2757,"1kp/":2758,"4K2P/":2759,"3d1\n":2760,"r4r1k/":2761,"N1P":2762,"8 b - - 0 8":2763,"5b2/8/":2764,"1 <MOVE_SEP> h7h":2765,"8/P7/":2766,"p1n5/":2767,"2b5/8/":2768,"p1pppp/5n2/":2769,"3 12":2770,"5B2/8/":2771,"P2p/":2772,"6d5 <MOVE_SEP> c":2773,"1p2p1p1/":2774,"2R4K":2775,"4R2/":2776,"5R1K b - - ":2777,"3N3/":2778,"2 <MOVE_SEP> a7a":2779," b - - 0 1":2780,"1p3/P":2781,"2r4/":2782," b q - ":2783,"4N/":2784," White <MOVE_SEP> b1a":2785,"KR":2786,"7r/8/":2787,"4PP/R":2788,"2PB4/":2789,"5R1K w - - ":2790,"1q6 w - - ":2791,"3q1rk1/":2792,"4n/":2793,"P3Q":2794,"2n1p/":2795,"1pP1/":2796,"NQ":2797,"8a5\n":2798,"1p2B":2799,"1Pr":2800,"8 <MOVE_SEP> h2h":2801,"4e5 <MOVE_SEP> d":2802,"8 w - - 3 7":2803,"1r1qk":2804,"6d8\n":2805,"pp2q":2806,"2kr3r/":2807,"8c8 <MOVE_SEP> c":2808,"1P3P1P/":2809,"5PP1/R":2810,"1B4/":2811,"2PR":2812,"5 <MOVE_SEP> f2f":2813,"kp1/":2814,"2R3K1 w - - ":2815,"2QB":2816,"8/4k3/8/":2817,"1e1 <MOVE_SEP> e":2818,"PPP2PP1/R":2819,"1P2/1P":2820,"1q3/":2821,"3rk2r/":2822,"8/3K4/":2823,"pb1n":2824," w Q - ":2825,"P5p1/":2826,"K4/":2827,"2p1p1p1/":2828,"1a2\n":2829,"1r1q1rk1/":2830,"1PBP/":2831,"r1bqkb1r/pp3ppp/":2832,"1r5/":2833,"rnb1kbnr/pp":2834,"2P2N2/PP":2835,"8b4\n":2836,"NP":2837,"2P2P1/":2838,"1p1Q":2839,"8/6pk/":2840,"5d4 <MOVE_SEP> f":2841,"8d7 <MOVE_SEP> e":2842,"4 <MOVE_SEP> b8c":2843,"2B5/8/":2844,"1/P1N":2845,"6d5 <MOVE_SEP> e":2846,"p1p3/":2847,"3b3/":2848,"8 b - - 4 6":2849,"1p2bpp1/":2850,"5k1r/":2851,"8g8 <MOVE_SEP> c":2852,"8/R7/":2853,"2p2n2/8/":2854,"2N2P":2855,"2ppP3/":2856,"1b4/":2857,"1rq":2858,"8 w - - 5 5":2859,"8/3b":2860,"P2b":2861,"NBQKBNR b KQkq - 0 1 Black <MOVE_SEP> e7e6\n":2862,"1PP1Q":2863,"3e4 <MOVE_SEP> d":2864,"3p1np1/":2865,"1PN1PN":2866,"5c4 <MOVE_SEP> d":2867,"6RK":2868,"3r1k":2869,"8 b - - 4 4":2870,"8/2r":2871,"7a8\n":2872,"1PK/":2873,"NBQK2R b KQkq - 0 ":2874,"4c5 <MOVE_SEP> d":2875,"5NP1/PP1PP":2876," w KQkq - 2 1":2877,"4 <MOVE_SEP> h2h":2878,"p1pn":2879,"3p1/8/":2880,"8g4\n":2881," KQq - ":2882,"P2n":2883,"p3p/":2884,"4p1k1/":2885,"2bp/":2886," White <MOVE_SEP> d2d4\n":2887,"4 <MOVE_SEP> f8e":2888,"8/8/1k6/":2889,"1Pp5/":2890,"NBQKB1R b KQkq - 1 2":2891,"bq":2892,"2p5/2P1P3/":2893,"2R3K1 b - - ":2894,"2N5/PPP2PPP/R1B":2895,"4 12":2896,"1p2N":2897,"1R1Q":2898,"8d5\n":2899,"r6p/":2900,"P2/1P":2901,"pp3p1p/":2902,"2p2pp1/":2903,"5NP1/PPPP":2904,"p4q":2905,"1B3P":2906,"2P1n":2907,"1pqb":2908,"NB1K2R":2909,"pp3p":2910,"2N4/":2911,"p3Q":2912,"8/6P1/":2913,"1P3K":2914,"p4p/":2915,"2a1\n":2916,"p2p4/P":2917,"4BN":2918," w - - 0 1":2919," w - - 0 4":2920,"1q2p":2921,"1p3q":2922,"rn2k2r/":2923,"7 <MOVE_SEP> b2b":2924,"1KB1R b KQkq - ":2925,"5r1p/":2926,"Q1N":2927,"1g1 <MOVE_SEP> g":2928,"4N3/8/":2929,"8 w - - 2 7":2930,"1R5K":2931,"Pp2/":2932,"2p5/2PP4/":2933,"2B1P":2934,"3P2P/":2935,"2q5 b - - ":2936,"8 <MOVE_SEP> a2a":2937,"K1 b k - 0 1":2938,"ppb":2939,"p5k1/":2940,"2 b - - 1 3":2941,"p3p1p1/":2942,"4b/":2943,"4bp2/":2944,"2np1/":2945,"2P1P1/":2946,"4q3 b - - ":2947,"2n2np1/":2948," b - - 2 2":2949,"QK1NR b KQkq - 0 ":2950,"4NP1/":2951,"5 12":2952,"5N2/PPPPPPPP/RNBQKB1R w KQkq - 0 ":2953,"2pp4/8/":2954," w - - 2 2":2955,"pPP":2956,"5R1P/":2957," b Q - ":2958,"5 <MOVE_SEP> f7f":2959,"8/k7/":2960,"3pP/":2961,"2pp1n":2962,"P1K":2963,"1g1 <MOVE_SEP> f":2964,"3k4/8/8/":2965,"3N4/8/":2966,"8 3":2967," w q - ":2968,"rn2kb1r/pp":2969,"5e4 <MOVE_SEP> d":2970,"4 <MOVE_SEP> a2a":2971,"5P2/p":2972,"P1/PP3P":2973,"8d7 <MOVE_SEP> c":2974,"1g1 <MOVE_SEP> e":2975,"p3p1/":2976,"3N2/":2977,"2 <MOVE_SEP> b7b":2978,"3q4 b - - ":2979,"2P2/R":2980,"2 White <MOVE_SEP> g1f3\n":2981,"pk/":2982,"2 b - - 1 2":2983,"1pppbp/":2984,"2P2B":2985,"K7 b - - ":2986,"2K3R":2987,"r1bqk1nr/":2988,"8/2K5/":2989,"rnbq":2990,"8 w - - 1 8":2991,"3P1p2/":2992,"2k1r/":2993,"3n3/":2994,"ppbppp/":2995,"3q1/":2996,"2N2N2/PPPP1PPP/R1B":2997,"3BB":2998,"2RQ":2999,"3P1/R":3000,"1N4/":3001,"1p3P2/":3002,"pP1/":3003,"qb":3004,"1 <MOVE_SEP> a7a":3005,"p2p1/":3006,"2 w - - 1 3":3007,"5 <MOVE_SEP> a7a":3008,"r4r2/":3009,"1P3PP1/R":3010,"3q2k1/":3011,"4Pp/":3012,"4q/":3013,"5p2/1P":3014,"8 w - - 4 4":3015,"8f8 <MOVE_SEP> f":3016,"5q2 b - - ":3017,"8 b - - 6":3018,"p4p2/P":3019,"1p4k1/":3020,"3P4/5N2/PPP1PPPP/R":3021,"2 <MOVE_SEP> f7f":3022,"bp2p":3023,"8 w - - 6":3024,"nB":3025,"q2p":3026,"3p4/2P5/":3027,"7 <MOVE_SEP> g2g":3028,"1b1ppp/":3029,"PPP/R4R":3030,"2P1b":3031,"1PPQ":3032,"PN1P/":3033,"4k1p1/":3034,"1c1 <MOVE_SEP> c":3035,"3q4/8/":3036,"1pp1p/":3037,"3e1\n":3038,"1p2R":3039,"2RQK2R":3040,"3R1K1 b - - ":3041,"5K2/8/8/":3042,"4pP2/":3043,"8/8/8 w - - 2":3044," b K - 0 2":3045,"8/8/8 b - - 2":3046,"QKBNR b KQkq - 1 2":3047," Black <MOVE_SEP> e7e6\n":3048,"2n1p2p/":3049,"8 b - - 2 3":3050,"6 12":3051,"7P/R":3052,"2 <MOVE_SEP> g7g":3053,"nP":3054,"p3p3/P":3055,"1p3p/":3056,"1PBP/R1B":3057,"2PK1/":3058,"pK":3059,"pp4p1/":3060,"2P1K":3061,"4q3/8/":3062,"1P4p1/":3063,"3p1P2/":3064,"8h6\n":3065,"2pp4/3P4/":3066,"K1 w - - 3 2":3067,"5 <MOVE_SEP> g7g":3068,"k5/":3069,"8/8/p7/":3070,"3R3P/":3071,"4b1k1/":3072,"6q1 b - - ":3073,"4BP2/":3074," w K - 0 2":3075,"rnbqkbnr/pppppppp/8/8/3P4/8/PPP1PPPP/RNBQKBNR b KQkq - 0 ":3076,"1e2 <MOVE_SEP> d":3077,"8/1r":3078,"4d5 <MOVE_SEP> f":3079,"3d4 <MOVE_SEP> c":3080,"rB":3081,"PPP1B":3082,"8/1B":3083,"8/8/k":3084," b - - 0 4":3085,"3 w - - 0 3":3086,"8/3n":3087,"2P2p2/":3088,"1R2K2R":3089,"2N1BN":3090,"3Q2/":3091,"2pk":3092,"4PK":3093,"7 12":3094,"2/1PQ":3095," b KQ - 1 1":3096,"6e8\n":3097,"pn1ppp/":3098,"bP":3099,"2P/6P1/":3100,"8 <MOVE_SEP> b2b":3101,"2bq":3102,"5q2/8/":3103,"p2p3p/":3104,"2PP/R":3105,"1k5/":3106,"8 w - - 4 6":3107,"1p2p1/":3108,"Pp3/":3109,"8 w - - 5 6":3110,"2b2rk1/":3111,"8/5R2/":3112,"PBP/":3113,"1a3\n":3114,"1h3\n":3115,"2p2n1p/":3116,"2P1P/R":3117,"1a4\n":3118,"2BB":3119,"p5p":3120,"4pn":3121,"1c3\n":3122,"4f5 <MOVE_SEP> e":3123,"2f3 <MOVE_SEP> e":3124,"1p3r":3125,"1 w - - 0 2":3126,"qppp/":3127,"6b1/8/":3128,"2pp2/":3129,"3r3p/":3130,"1K1R3R":3131,"5P2/R":3132,"2p2b":3133,"1 <MOVE_SEP> b7b":3134,"1P2p3/":3135,"2PP4/8/PP2PPPP/R":3136,"1g1 <MOVE_SEP> d":3137,"8 w - - 2 3":3138,"2k5/8/8/":3139,"3 w - - 0 2":3140,"1K/8/":3141,"5q2 w - - ":3142,"4K1R":3143,"1 Black <MOVE_SEP> d7d5\n":3144,"5f4 <MOVE_SEP> e":3145,"4Q1/":3146,"1g2 <MOVE_SEP> d":3147,"4PPP/":3148,"b5/":3149," b kq - 1 1":3150,"K1 w k - 0 1":3151,"1BP/":3152,"2pk1/":3153,"rn1qk2r/pp":3154,"6q1 w - - ":3155,"PP4/":3156,"4 <MOVE_SEP> d1d":3157,"2Q3/":3158,"rk":3159,"1PN1P/":3160,"3B2P1/":3161,"8 12":3162,"rn1q":3163,"2R4/":3164,"p2P/":3165,"6 <MOVE_SEP> g7f":3166,"3K1R":3167," Black <MOVE_SEP> f8e7\n":3168,"3r3/":3169,"Q1PP":3170,"2p2p1p/":3171,"br1/":3172,"2q5 w - - ":3173,"6B1/8/":3174,"bp1/":3175,"p2p2p1/":3176,"3r3r/":3177,"1Q2R":3178,"3nP3/":3179,"1k1r4/":3180,"3d4 <MOVE_SEP> e":3181,"2 White <MOVE_SEP> b1c3\n":3182,"p3R":3183,"3B1P2/":3184,"3K1P2/":3185,"2P3P/":3186,"2K1 w - - 0 2":3187,"/P1N":3188,"3K1NR":3189,"PPP1Q":3190,"3b2p1/":3191,"2NP4/":3192,"P3P/":3193,"8 b - - 5 5":3194,"b1p":3195,"1K2/8/":3196,"1B1P":3197,"3KR":3198,"r3k1/":3199," w - - 1":3200,"1bB":3201,"8 w - - 0 8":3202,"1r2r1k1/":3203,"K7 w - - ":3204,"r1bqkbnr/":3205,"PK/":3206,"4r2p/":3207,"3e4 <MOVE_SEP> f":3208,"2k2/8/":3209,"2P1R":3210,"K1 w kq - 1 1":3211,"3RKB1R":3212,"8d7 <MOVE_SEP> d":3213,"8e7 <MOVE_SEP> d":3214,"1n4/":3215,"rnbqkbnr/pp1ppppp/8/2p5/2P5/":3216,"6 <MOVE_SEP> d1d":3217,"1R5/":3218,"q2ppp/":3219,"1P1PP":3220,"3 b - - 0 2":3221,"8/8/2K":3222,"1P/PP3PP1/R":3223,"2N1B3/":3224,"5p2/5P2/":3225,"5g4 <MOVE_SEP> f":3226,"4R2P/":3227,"1p1b4/":3228,"5b1p/":3229,"8/7K/":3230,"4g5 <MOVE_SEP> f":3231,"5B1P/":3232,"PPP/R1B2R":3233,"8/2b":3234,"1P1PPP/R1B":3235,"6P1/PP2PP":3236,"p3pp/":3237,"4n2/":3238,"2P2/P":3239,"8/8/1K6/":3240,"PPP/R3K2R":3241,"2 w - - 0 4":3242,"4n3/8/":3243,"1P3p2/":3244,"p4P2/":3245,"8/1R6/":3246,"e2e4 <MOVE_SEP> e7e":3247,"5Pp/":3248,"7n":3249,"8/r":3250," Black <MOVE_SEP> d7d6\n":3251,"2pk/":3252,"9 12":3253,"5b4 <MOVE_SEP> c":3254,"2K1/8/":3255,"7P/6P1/":3256,"2K1 b - - 0 2":3257,"1f1 <MOVE_SEP> f":3258,"4K3/8/8/":3259,"nN":3260,"3q4 w - - ":3261,"1B2B":3262,"1bk1/":3263,"3/P1P":3264,"4 <MOVE_SEP> g2g":3265,"3p1p1/":3266,"4pp1p/":3267,"1P2P2P/":3268,"8/8/1K":3269,"2n5/8/":3270,"1pK":3271,"3KBNR":3272,"8/2p5/":3273,"2k4r/":3274,"8g7 <MOVE_SEP> e":3275,"3qk":3276," w Kkq - 0 1":3277,"p1p2ppp/":3278,"rbk1/":3279,"4q3 w - - ":3280,"PPP/R2QK2R":3281,"1P1p4/":3282,"3K3P/":3283,"1pp1n":3284,"2PK/":3285,"4N1P/":3286,"2p3pp/":3287,"1/R4R":3288,"6d5 <MOVE_SEP> f":3289,"3R1B":3290,"8/pp":3291,"2P5/P":3292,"RN":3293,"2qb":3294,"r1b1k1nr/pp":3295,"4k2p/":3296,"8g7 <MOVE_SEP> d":3297,"R2Q":3298,"1g1 <MOVE_SEP> c":3299,"1pp2pp1/":3300,"k2/p":3301,"1P/PP2B":3302,"6p1/7p/":3303,"8/1K6/":3304,"P2P1/":3305,"8/2P":3306,"5Q/":3307,"1KP/":3308,"8d8 <MOVE_SEP> f":3309,"8e7 <MOVE_SEP> f":3310," b - - 1":3311,"p4b":3312,"3PK/":3313,"1g2 <MOVE_SEP> e":3314,"2 White <MOVE_SEP> d2d4\n":3315,"8 b - - 3 7":3316,"5P2/PP":3317,"1 b - - 0 2":3318,"2QK":3319,"3P4/P1N":3320,"3n3p/":3321,"3c1\n":3322,"1b5\n":3323,"8/8/4k3/8/":3324,"Bp/":3325,"2/P1Q":3326,"8g7 <MOVE_SEP> f":3327,"6h5 <MOVE_SEP> f":3328,"R6P/":3329,"3 b - - 0 3":3330,"P4p":3331,"8/3k4/8/":3332,"6K1 w - - 1 3":3333,"2r2k2/":3334,"NBQKBNR b KQkq - 0 1 Black <MOVE_SEP> e7e5\n":3335,"5c4 <MOVE_SEP> e":3336,"4n1p1/":3337,"p2p2/":3338,"5P/R":3339,"2b4/":3340,"8/8/4K3/8/":3341,"1k2/8/":3342,"1P1r":3343,"1BK":3344,"2N2/1P":3345,"1p2P/":3346,"1p2/1P":3347,"4PK/":3348,"4Q2/":3349,"1Pp4/":3350,"p1p4p/":3351,"1P2b":3352,"4 <MOVE_SEP> a5a":3353,"2/P3B":3354,"p2/1P":3355,"1B6/8/":3356,"q1n":3357,"5 <MOVE_SEP> d1d":3358,"3 <MOVE_SEP> a5a":3359,"2QKB1R w KQkq - ":3360,"b1f":3361,"1e2 <MOVE_SEP> c":3362,"8 2":3363,"3Q3P/":3364,"8d8 <MOVE_SEP> e":3365,"4R1P1/":3366,"3N1P2/":3367,"QP":3368,"6K1 b - - 1 3":3369,"4e5 <MOVE_SEP> c":3370,"3PP/R1B":3371,"2p1b3/":3372,"1P2p/":3373,"1p3b":3374,"r5p1/":3375,"2p1p3/8/":3376,"1 13":3377,"4P3/P1N":3378,"NBQKBNR b KQkq - 0 1 Black <MOVE_SEP> c7c5\n":3379," w - - 2 3":3380,"4c5 <MOVE_SEP> e":3381,"2B5 b - - ":3382,"4b5 <MOVE_SEP> c":3383,"KP":3384," Black <MOVE_SEP> c7c5\n":3385,"2p1k":3386,"1b2p/":3387,"5Q1/":3388,"3 <MOVE_SEP> b2c":3389,"N1QKB1R b KQkq - ":3390,"2r4p/":3391,"5RK1/":3392,"4N1P1/":3393,"2R4P/":3394,"6 <MOVE_SEP> f3e":3395,"1pn2/8/":3396,"4P/R":3397,"4c5 <MOVE_SEP> b":3398,"4r1p1/":3399,"e2e4 <MOVE_SEP> c7c":3400,"p4/P":3401,"6BP/":3402,"8/3r4/":3403,"4bp/":3404,"0 13":3405,"3RB":3406,"2BPPP/R1B":3407,"PP3PP1/R":3408,"2/p2p":3409,"6 <MOVE_SEP> a4a":3410,"8/1P6/":3411,"1d1 <MOVE_SEP> f":3412,"4r2/":3413,"8/8/1p6/":3414,"2f3 <MOVE_SEP> d":3415,"5RK1 b - - 0 2":3416,"1P2n":3417,"P/P":3418,"3n4/8/":3419,"r1b1kbnr/pp":3420,"2p2/P":3421,"6c8\n":3422,"1P1q":3423,"3R1K1 w - - ":3424,"3b1p2/":3425,"3f1\n":3426,"1K2R b KQkq - ":3427,"b1n":3428,"r2q1rk1/pp":3429,"2 13":3430,"3Pn3/":3431,"1pP1P":3432,"1e1 <MOVE_SEP> f":3433,"3rk3/":3434,"1RQ":3435,"N1B":3436,"bB":3437,"1g2 <MOVE_SEP> f":3438,"2 w - - 1 2":3439,"2P2PP1/":3440,"PP1P/":3441,"2B5 w - - ":3442,"8e7 <MOVE_SEP> c":3443,"8/3R":3444,"2p1p1/":3445,"6e5 <MOVE_SEP> c":3446,"1ppbp/":3447,"1r2k2r/":3448,"1P3B":3449,"r3r3/":3450,"2pQ":3451,"2q5/8/":3452,"r6P/":3453,"PP1/R4R":3454,"8e8 <MOVE_SEP> f":3455,"7a5\n":3456,"1K5R":3457,"PP5P/":3458,"4PK1/":3459,"1rn":3460,"1K1 b - - 1 2":3461,"6P1/PP1PPP1P/R":3462,"8d8 <MOVE_SEP> c":3463,"NBQKBNR w KQkq - 1 2":3464,"5 <MOVE_SEP> a4a":3465,"2p1pn1p/":3466,"2kr3r/pp":3467,"K1 w - - 3 1":3468,"P1p1/":3469,"1d1 <MOVE_SEP> e":3470,"8/8/5p2/":3471,"8/2r5/":3472,"rnb1k2r/":3473,"4q2p/":3474,"nr/":3475,"8r\n":3476,"2a4\n":3477,"3n1p2/":3478,"1P3K2/":3479,"2pp4/2P5/":3480,"4f3 <MOVE_SEP> g":3481,"K1 b q - ":3482,"6g5 <MOVE_SEP> f":3483,"2BK":3484,"NBQKBNR b KQkq - 0 1 Black <MOVE_SEP> c7c6\n":3485,"4P3/5N2/PPPP1PPP/R":3486,"2b3k1/":3487,"bN":3488,"KB":3489,"8/7R/":3490,"6f5 <MOVE_SEP> e":3491,"6 <MOVE_SEP> h4h":3492,"PPP2PPP/R1B":3493,"8/4r3/":3494,"1R5P/":3495,"8n":3496,"1e2 <MOVE_SEP> e":3497," w Kk - ":3498,"2BP/":3499,"3f4 <MOVE_SEP> e":3500,"2k/8/":3501,"4 <MOVE_SEP> b2b":3502,"1p2ppbp/":3503,"2n4/":3504,"8/8/5k2/8/":3505," b - - 2 3":3506,"K1 b - - 3 2":3507,"P3PP":3508,"2B1N":3509,"rnbqkb1r/ppp2ppp/4pn2/":3510,"1 w - - 0 3":3511,"4q1k1/":3512,"6f8\n":3513,"2 White <MOVE_SEP> g2g3\n":3514,"P1PP":3515,"5f6 <MOVE_SEP> e":3516,"2pp4/2PP4/":3517,"8c8 <MOVE_SEP> e":3518,"2 <MOVE_SEP> g8f":3519,"B1P":3520,"4r/pp":3521,"br":3522,"6k1/7p/":3523,"1rb2rk1/":3524," b Kk - ":3525,"1p3n2/":3526,"5e4 <MOVE_SEP> c":3527,"8 w - - 5 4":3528,"8c8 <MOVE_SEP> f":3529,"1e2 <MOVE_SEP> f":3530,"K1 w q - ":3531,"3g4 <MOVE_SEP> f":3532,"4kp2/":3533,"3 13":3534,"r2qkbnr/pp":3535,"p1qn":3536,"2pR":3537,"8/3R4/":3538,"1r3k":3539,"R4":3540,"6q1/8/":3541,"5BP1/":3542,"2p1r":3543,"2 b - - 0 4":3544,"2BQ":3545,"3r1k/":3546,"5e6 <MOVE_SEP> f":3547,"p2K":3548," b Kkq - 0 1":3549,"1d1 <MOVE_SEP> c":3550,"2q3/":3551,"N5/":3552,"pp1ppp/2n5/":3553,"rnbqkb1r/ppp1pppp/5n2/":3554,"3b1\n":3555,"1r1r2k1/":3556,"rnbqkb1r/pp1ppppp/5n2/":3557,"P1r":3558,"1k1p/":3559,"q7/8/":3560,"8/r7/":3561,"r1bk":3562,"b1\n":3563,"3Q2P1/":3564,"bP/":3565,"1r\n":3566,"1R4K1 w - - ":3567,"5b3\n":3568,"4g6\n":3569,"3q3p/":3570,"3K2R b KQ - 0 1":3571,"1P2P1P1/":3572,"5 <MOVE_SEP> h4h":3573,"rnbqkb1r/pp1p1ppp/4pn2/":3574,"1b1q":3575,"3BK":3576,"7 <MOVE_SEP> h4h":3577,"2pp2p1/":3578,"5d6 <MOVE_SEP> e":3579,"1g2 <MOVE_SEP> c":3580,"rnbqkb1r/pp3ppp/4pn2/":3581,"QK2R w KQ - ":3582,"2KR1B1R":3583,"8/8/8/4K3/":3584,"1P/5P2/":3585,"bk":3586,"8 b - - 5 6":3587,"1 <MOVE_SEP> g7g":3588,"2PBP/R":3589,"5rp1/":3590,"4b6\n":3591,"3 <MOVE_SEP> f6e":3592,"2P1P2P/":3593,"1P/RNBQKB1R b KQkq - 0 ":3594,"1P4K1/":3595,"7q/8/":3596,"2P2/8/":3597,"2N2N2/PPP2PPP/R1B":3598,"r1b5/":3599,"r3b":3600,"6K1 w - - 1 4":3601,"2n2n1p/":3602,"2/P2P":3603,"B1/R1B":3604,"2pbp/":3605,"p3K":3606,"3P1P1/":3607,"K1 b - - 3 1":3608,"1PP2P2/":3609,"r4b":3610,"2d5\n":3611,"2pN4/":3612,"1bk":3613,"8/8/3K4/8/":3614,"8 w - - 7":3615,"2PN4/":3616," White <MOVE_SEP> e2e3\n":3617,"3bp3/":3618,"4R1K1/":3619,"8/5P2/":3620,"8e7 <MOVE_SEP> e":3621,"1p2b3/":3622,"4PN2/PP3PPP/R":3623,"1b6/8/":3624,"nq":3625,"1NQ":3626,"rn2k2r/pp":3627,"2 w - - 1":3628," White <MOVE_SEP> c2c4\n":3629,"8 b - - 7":3630,"5g3\n":3631,"1Bp/":3632,"2Pq":3633,"4n2p/":3634,"6c5 <MOVE_SEP> d":3635,"QK2R w KQkq - 0 1":3636,"4Q2P/":3637,"3 <MOVE_SEP> h5h":3638,"1q2p3/":3639,"8 b - - 4 7":3640,"NBQKBNR w KQkq - 1 3":3641,"1p1p2p1/":3642,"1PN2/":3643,"5 <MOVE_SEP> h3h":3644,"4q1/":3645,"1b5/":3646,"r3k1r1/":3647,"r2q2k1/":3648,"8/8/5k":3649,"8 b - - 5 4":3650,"2pr":3651,"1RB2R":3652,"NB2R":3653,"2K2/8/":3654,"4n1/":3655,"3b1 <MOVE_SEP> ":3656,"8/6R1/":3657,"1bP":3658,"5 <MOVE_SEP> b7b":3659,"3N3P/":3660,"Nn":3661,"1b1p1/":3662,"p2p1p/":3663,"2r1k3/":3664,"1r5p/":3665,"P1/5P2/":3666,"1pp/8/":3667,"1Q3N":3668,"2p2/8/":3669,"2RQR":3670,"8c8 <MOVE_SEP> d":3671,"NK":3672,"2N2/PP":3673,"1Q4P1/":3674,"N1QKB1R w KQkq - ":3675,"rnbqkbnr/pp3ppp/4p3/":3676,"PPBP/R1B":3677,"4 <MOVE_SEP> h5h":3678,"3q2p1/":3679,"4c3 <MOVE_SEP> d":3680,"p1/7p/":3681,"4 13":3682,"1PPP":3683,"1b1 <MOVE_SEP> b":3684,"rn2kb1r/":3685,"6bp/":3686,"pp2p3/":3687,"2PPPP/R1B":3688,"1bqn":3689,"kq":3690,"3R2P1/":3691,"PP1PPPPP/R1B":3692,"8 <MOVE_SEP> g2g":3693,"8 b - - 6 5":3694,"1b1P":3695,"2 <MOVE_SEP> a5a":3696,"7 <MOVE_SEP> a4a":3697,"3Np3/":3698,"1P/6P1/":3699,"1kb1r/":3700,"3B4 b - - ":3701,"5f4 <MOVE_SEP> g":3702,"2R1KB1R":3703,"3rn":3704,"2R4R":3705,"1KB1R w KQkq - ":3706,"2P2P1P/":3707,"1KP":3708,"2PB1/":3709,"2 Black <MOVE_SEP> g8f6\n":3710,"K1 w kq - 2 1":3711,"r2r4/":3712,"4f5 <MOVE_SEP> g":3713," Black <MOVE_SEP> b8d7\n":3714,"2N2NP1/PP2PP":3715,"2rqk2r/":3716,"2pb1/":3717,"r4k1r/":3718,"8/8/7K/":3719,"b1 <MOVE_SEP> ":3720,"1R4K1 b - - ":3721,"3K2R w KQ - 0 1":3722,"p1pb":3723,"1B1Q":3724,"4N1/":3725,"1e1 <MOVE_SEP> d":3726,"1PB1/R":3727,"8 b - - 3 3":3728,"5k2/5p2/":3729,"p1p1p3/":3730,"1P4PP/":3731,"5f6 <MOVE_SEP> d":3732,"Q1P":3733,"6 <MOVE_SEP> b7c":3734,"pbq":3735,"7P/P":3736,"5N2/8/":3737,"3e4 <MOVE_SEP> c":3738,"8e5\n":3739,"1K3R":3740,"3Pb":3741,"5c4 <MOVE_SEP> f":3742,"1b2b":3743,"1nn":3744,"rnbqk1nr/":3745,"8/8/8/4k3/":3746,"2rk":3747,"8/8/8 w - - 3":3748," b KQ - 2 1":3749,"1p2pn1p/":3750,"8 b - - 1 8":3751,"PB1/R":3752,"3QB":3753,"2f3 <MOVE_SEP> g":3754,"2Q2P2/":3755,"8/8/8 b - - 3":3756,"PP1P1PPP/R1B":3757,"4BK":3758,"1c1 <MOVE_SEP> f":3759,"Q1RK1 w kq - 0 1":3760,"4PN1P/":3761,"1RK":3762,"2N5/PP1PPPPP/R1B":3763,"2Q4P/":3764,"4 <MOVE_SEP> a6a":3765,"4pk2/":3766,"4c5 <MOVE_SEP> f":3767,"3r2p1/":3768,"8g7 <MOVE_SEP> c":3769,"1p2pn2/8/":3770,"p1p2/":3771,"r4rk1/pp":3772,"1p2pp1p/":3773,"8/8/3K":3774,"3B4 w - - ":3775,"p4K":3776,"4f3 <MOVE_SEP> e":3777,"P1N5/":3778,"5KR":3779,"3n1pp1/":3780,"4f5 <MOVE_SEP> d":3781,"3 <MOVE_SEP> f2e":3782,"2P/R1B":3783,"1r3k2/":3784,"1P3R":3785,"2QKB1R b KQkq - 0 ":3786,"PPBP/":3787,"5 13":3788,"2KB":3789,"2PP3/":3790,"3KB1R b KQkq - ":3791,"1/R7 b - - ":3792,"3d4 <MOVE_SEP> f":3793,"4d3 <MOVE_SEP> e":3794,"1p6/1P6/":3795,"8/8/3k4/8/":3796,"6 <MOVE_SEP> f1d":3797,"2f3 <MOVE_SEP> c":3798,"r5P1/":3799,"3p/7P/":3800,"2Q4/":3801,"1/R7 w - - ":3802,"6 <MOVE_SEP> h3h":3803,"rnbqk2r/pp2bppp/":3804,"3p2pp/":3805,"P3p3/":3806,"4PP1P/":3807,"8/5r2/":3808,"8 w - - 5 7":3809,"8/2k5/8/":3810,"8 b - - 2 8":3811,"8e8 <MOVE_SEP> d":3812,"8f8 <MOVE_SEP> e":3813,"2kp/":3814,"ppb1/":3815,"2K4P/":3816,"2 b - - 1":3817,"5np1/8/":3818,"3p4/3P1B2/":3819,"5N1/":3820,"5K1 w - - ":3821,"2 <MOVE_SEP> h5h":3822,"RB":3823,"5pkp/":3824,"3pb1/":3825,"5 <MOVE_SEP> a3a":3826,"q1p":3827,"5f4 <MOVE_SEP> d":3828,"5RP1/":3829,"2bk":3830,"2B4P/":3831,"5 <MOVE_SEP> a5a":3832,"1p1n1ppp/":3833,"3BPN":3834,"1q6/8/":3835,"5bp1/":3836,"4KR":3837,"6kr/":3838,"1kp1/":3839,"1PP/P":3840,"5B/":3841,"7B/8/":3842,"1nP":3843,"PPP/R2Q1R":3844,"rnbqkbnr/pp2pppp/2p5/":3845,"4RB":3846,"7 <MOVE_SEP> h7h":3847,"1KB1R b KQkq - 0 ":3848,"1b1p":3849,"2QR1":3850,"2P1p/":3851,"pP4/":3852,"1Bn":3853,"7f6 <MOVE_SEP> e":3854,"5pbp/":3855,"r6/":3856,"rnb1kb1r/":3857,"b1P":3858,"b1r":3859,"R1B2R":3860,"2PP1B2/":3861,"1 b - - 0 3":3862,"2r4r/":3863,"2P1B3/":3864,"5e6 <MOVE_SEP> d":3865,"1p1n4/":3866,"pP2/":3867,"5c6 <MOVE_SEP> d":3868,"1c1 <MOVE_SEP> e":3869,"1PP2PP1/R":3870,"2Pp4/P":3871,"7e4\n":3872,"2 White <MOVE_SEP> c2c4\n":3873,"2BN":3874,"8r <MOVE_SEP> ":3875,"8/4b3/":3876,"5RK1 b - - 0 3":3877,"1B2P/":3878,"2BP4/":3879,"5PKP/":3880,"rnbqkb1r/pp1ppppp/2p2n2/8/":3881,"2 <MOVE_SEP> h2h":3882,"P4p2/":3883,"1rbq1rk1/":3884,"P2p4/":3885,"5 <MOVE_SEP> h5h":3886,"1/P1P":3887,"2pb4/":3888,"8 <MOVE_SEP> h4h":3889,"1bP/":3890,"P3P2P/":3891,"qpp":3892,"2/P6P/":3893,"P1q":3894,"1B5P/":3895,"2NB4/":3896,"3N2P1/":3897,"3pk1/":3898,"8/2P5/":3899,"4q1p1/":3900,"4N2P/":3901,"6K1 b - - 1 4":3902,"1B3P2/":3903,"6 13":3904,"r1bqkb1r/pp1p1ppp/":3905,"8/4b":3906,"4 <MOVE_SEP> a4a":3907,"p1P1/":3908,"4f3 <MOVE_SEP> d":3909,"8/8/R":3910,"P1P4P/":3911,"8/5p1k/":3912,"5RK1 w - - 0 2":3913,"4Q1P1/":3914,"2q4p/":3915,"1R4P1/":3916,"4d5 <MOVE_SEP> d":3917,"3n2p1/":3918,"4 <MOVE_SEP> b6b":3919,"2QK2R b KQkq - ":3920,"7d4\n":3921,"4R1K1 b - - 0 3":3922,"P1PB":3923,"rnbqkbnr/pp1ppppp/8/2p5/":3924,"4pk1/":3925,"8d7 <MOVE_SEP> g":3926,"1nB":3927,"2p2ppp/":3928,"2p1N3/":3929,"p1K":3930,"2P2/1P":3931,"5q/":3932,"5PK/":3933,"1B2/8/":3934,"6 <MOVE_SEP> c1f":3935,"3 <MOVE_SEP> a6a":3936,"5NP1/PPP1PP":3937,"p1PP":3938,"NBQKB1R w KQkq - 1 4":3939,"3pk/":3940,"4 <MOVE_SEP> h4h":3941,"6 <MOVE_SEP> g7g":3942,"p2Pp":3943,"1b1P4/":3944,"3B1N2/PP":3945,"8 w - - 3 8":3946,"p1k/":3947,"1e1 <MOVE_SEP> c":3948,"4b2\n":3949,"2e5\n":3950,"b6/":3951,"5NP1/PPPPPP1P/R":3952,"9 3":3953,"r4":3954,"2P5/8/PP1PPPPP/RNBQKBNR w KQkq - 0 ":3955,"c2c4 <MOVE_SEP> e7e":3956,"r1p":3957,"r3n":3958,"7 13":3959,"4PK2/":3960,"2QKB1R w KQkq - 0 ":3961,"1pp1bppp/":3962,"7 <MOVE_SEP> h3h":3963,"6K1/8/8 b - - ":3964,"4 <MOVE_SEP> h6h":3965,"3pb":3966,"1K1 w - - 0 3":3967,"1K w - - 0 2":3968,"P3N":3969,"2N2/1PP":3970,"1r <MOVE_SEP> ":3971,"4KB1R":3972,"1rbqk":3973,"6 <MOVE_SEP> b1d":3974,"Q1RK1 b kq - 0 1":3975,"2r4P/":3976,"1b5p/":3977," w - - 1 4":3978,"3P1P":3979,"2pp1n2/":3980,"3R3p/":3981,"2P2Q":3982,"2R4p/":3983,"1PB/":3984,"8 w - - 6 5":3985,"Q3R":3986,"K1 b kq - 2 1":3987,"pp4pp/":3988,"8/4R3/":3989,"2KR4 w - - ":3990,"8f8 <MOVE_SEP> d":3991,"NP/":3992,"4e3 <MOVE_SEP> d":3993,"6 <MOVE_SEP> a3a":3994,"8 <MOVE_SEP> a4a":3995,"3PP3/8/PPP2PPP/RNBQKBNR b KQkq - 0 ":3996,"1p1p1p/":3997," White <MOVE_SEP> h2h1\n":3998,"2KR4 b - - ":3999,"2Q3P1/":4000,"1c1 <MOVE_SEP> d":4001,"2bk1/":4002,"2P5/P1N":4003,"4 <MOVE_SEP> h3h":4004," b - - 1 1":4005,"qpp1/":4006,"5ppk/":4007,"R1N":4008,"2k1r3/":4009,"8 b - - 6 6":4010,"2nppp/":4011,"Ppp":4012,"2pP3/":4013,"8 w - - 4 7":4014,"4P1K1/":4015,"5q1p/":4016,"1 <MOVE_SEP> a5a":4017,"4p1/8/":4018,"2N1P1P1/":4019,"2/1P3PPP/R":4020,"5d2\n":4021,"5g6 <MOVE_SEP> f":4022,"2p1P/":4023,"1PNB":4024,"8f8 <MOVE_SEP> g":4025,"8/8/8/5k2/":4026,"2P1PP":4027,"6 <MOVE_SEP> g8h":4028," w KQ - 2 1":4029,"2/PPP2PPP/R1B":4030,"6 <MOVE_SEP> h5h":4031,"6g5 <MOVE_SEP> e":4032,"1R5p/":4033,"2NB1N":4034,"2P5/PP":4035,"6 <MOVE_SEP> h7h":4036,"R2K1 w - - ":4037,"PPP2PP1/R1B":4038,"3r3P/":4039,"b2/8/":4040,"pbn":4041,"2h4\n":4042,"8 13":4043,"3NR":4044,"P3K":4045,"BP/R2Q1R":4046,"5Q1P/":4047,"4pP/":4048,"1K b - - 0 2":4049,"4d1\n":4050,"4g5 <MOVE_SEP> e":4051,"1bP5/":4052,"2npp":4053,"1r5P/":4054,"8e8 <MOVE_SEP> c":4055,"3PK1/":4056,"3R1P2/":4057,"3n1ppp/":4058,"PP2PPPP/R1B":4059,"1e2 <MOVE_SEP> b":4060,"1f1 <MOVE_SEP> e":4061," b KQk - 0 1":4062,"3g4 <MOVE_SEP> e":4063,"5g7\n":4064,"3f4 <MOVE_SEP> d":4065,"1B5/":4066,"4 <MOVE_SEP> a3a":4067,"5 <MOVE_SEP> a6a":4068,"p2p1ppp/":4069,"2Bn":4070,"7 <MOVE_SEP> g8h":4071,"3K1 w - - ":4072,"6b8\n":4073,"P2K":4074,"3/P5P1/":4075,"3 <MOVE_SEP> a4a":4076,"1p1k/":4077,"p3b3/":4078,"K3R":4079,"3c4 <MOVE_SEP> d":4080," w K - 1 2":4081,"2/R":4082,"3 <MOVE_SEP> h6h":4083,"1r1k":4084,"8/3P":4085,"1bpn":4086,"2np2p1/":4087,"3QK":4088,"1g1 <MOVE_SEP> b":4089,"3K4/8/8/":4090,"2p1pp":4091,"7 <MOVE_SEP> b1c":4092," w K - 1 1":4093,"1B2Q":4094,"3 <MOVE_SEP> h2h":4095,"6K1/8/8 w - - ":4096,"p3bpp1/":4097,"6 <MOVE_SEP> a5a":4098,"3k3p/":4099,"2 Black <MOVE_SEP> d7d5\n":4100,"1p1p1ppp/":4101,"7 <MOVE_SEP> a3a":4102,"5PPK/":4103,"4 <MOVE_SEP> c2c":4104,"2b4p/":4105,"P4P1P/":4106,"1p1p3p/":4107,"1R4/":4108,"2/P5P1/":4109,"2R3P1/":4110,"1b1p/":4111,"1d5\n":4112,"5d8\n":4113,"2PpP3/":4114,"2p1n3/":4115,"4e7\n":4116,"8/8/5K2/8/":4117,"4P3/PP3PPP/R":4118,"1K1 b - - 0 3":4119,"p4k2/":4120,"3 <MOVE_SEP> h4h":4121," b K - 1 1":4122,"r2/p":4123,"1npppp/":4124,"6d7 <MOVE_SEP> f":4125,"5g4 <MOVE_SEP> e":4126,"2B3P1/":4127,"4g2\n":4128,"1ppq":4129,"2RB":4130,"Q1RK1 b - - 0 1":4131,"1 <MOVE_SEP> h5h":4132,"4K2p/":4133,"4f5 <MOVE_SEP> c":4134,"1B1P/":4135,"2rqr1k1/":4136,"5b7\n":4137,"6c5 <MOVE_SEP> e":4138,"8/7r/":4139,"1P3Q":4140,"6f5 <MOVE_SEP> d":4141,"2nq":4142,"3d2 <MOVE_SEP> e":4143,"R6R":4144,"P1P3P1/":4145,"5NP1/PP1PPP1P/R":4146,"2bp4/":4147,"2NPB":4148,"1K4R":4149,"r1p/":4150,"P1K/":4151,"6d7 <MOVE_SEP> e":4152,"3g4 <MOVE_SEP> d":4153,"N1QKB1R b KQkq - 0 ":4154,"5d6 <MOVE_SEP> c":4155,"7N":4156,"1nbppp/":4157,"5e6 <MOVE_SEP> c":4158,"N1QKB1R w KQkq - 0 ":4159,"5e2\n":4160,"r1b1k1nr/":4161,"p3P3/P":4162,"3NK":4163,"2 <MOVE_SEP> c7c":4164,"1B2R":4165,"rnbqkb1r/pp2pp1p/":4166,"3rr3/":4167,"2pn4/":4168,"3Q3/":4169,"pb3ppp/":4170,"1k5r/":4171,"R2K1 b - - ":4172,"2 Black <MOVE_SEP> e7e6\n":4173,"P3R":4174,"2p2q":4175,"4g5 <MOVE_SEP> d":4176,"4KB":4177,"PP3PP1/":4178,"8/3b4/":4179,"2KRR":4180,"1P1p1/":4181,"4P3/PPP2PPP/R":4182,"5n2/8/8/":4183,"4R1K1 w - - 0 3":4184,"8 <MOVE_SEP> h3h":4185," w - - 3 2":4186,"1Nn":4187,"8/3B":4188,"r1bqkbnr/pp3ppp/":4189,"1b3pp1/":4190,"8e7 <MOVE_SEP> g":4191,"2P3PP/":4192,"3K1/8/":4193,"4d3 <MOVE_SEP> c":4194," Black <MOVE_SEP> h7h6\n":4195,"4pk/":4196,"4p1/P":4197,"8b8 <MOVE_SEP> f":4198,"5b/":4199,"2 w - - 2 3":4200,"1r4P1/":4201,"4g3 <MOVE_SEP> f":4202,"4c3 <MOVE_SEP> e":4203,"1b1 <MOVE_SEP> f":4204,"2NK":4205,"1pp1q":4206,"3NP3/":4207,"B7/8/":4208,"bpn":4209,"5b4 <MOVE_SEP> e":4210,"1g3\n":4211,"B/R":4212,"2b1r/":4213,"1p1P1/":4214,"8b8 <MOVE_SEP> b":4215,"6 <MOVE_SEP> g7h":4216,"8 b - - 8":4217," b - - 3 2":4218,"3k3r/":4219,"3bk":4220,"1b1 <MOVE_SEP> e":4221,"5 <MOVE_SEP> f3e":4222,"P3P1P1/":4223,"1b4p1/":4224,"PPPB":4225,"8g6\n":4226,"5nk1/":4227,"1f1 <MOVE_SEP> d":4228,"3Q1P2/":4229,"Np/":4230,"8/8/8/3K4/":4231,"5f4 <MOVE_SEP> c":4232,"8 w - - 8":4233,"8b8 <MOVE_SEP> e":4234,"b1/8/":4235,"2n1p1p1/":4236,"3/P3P3/":4237,"8/8/8/3k4/":4238,"r3k1nr/":4239,"p2n1ppp/":4240,"r1bqkbnr/pp1p1ppp/":4241,"5P1P/R":4242,"1 w Q - ":4243,"K1 b - - 2 3":4244,"5 <MOVE_SEP> b3b":4245," Black <MOVE_SEP> e8g8\n":4246,"9 13":4247,"8/3r":4248,"8 w - - 7 5":4249,"8 b - - 0 9":4250,"8c7 <MOVE_SEP> f":4251,"7b4\n":4252,"QK2R b KQkq - 0 1":4253,"2 <MOVE_SEP> a6a":4254,"1PPPP/R1B":4255,"PP3PPP/":4256,"2RQKB1R":4257,"1b1r/pp":4258,"4BPP1/":4259,"4 <MOVE_SEP> g8h":4260,"8/2B":4261,"4kp/":4262,"PPPQ":4263,"7k":4264,"R6p/":4265,"2R2B":4266,"3b2k1/":4267,"4BK2/":4268,"2N5/8/":4269,"P2q":4270,"4b5 <MOVE_SEP> e":4271,"1r2/p":4272,"Qn":4273,"3p1p1p/":4274,"6 <MOVE_SEP> h7g":4275,"6g8\n":4276,"6rp/":4277,"1b1 <MOVE_SEP> d":4278,"2N1P2P/":4279,"3BP3/":4280,"5q1/":4281,"7f6 <MOVE_SEP> d":4282,"1p2K":4283,"2n2p2/":4284,"2q3p1/":4285,"2/P2B":4286,"3p2/p":4287,"1K1P/":4288,"2P1P3/P":4289,"1P3NP1/P":4290,"R5p1/":4291,"2pP1P":4292,"4d7\n":4293,"2bN":4294,"1p1k4/":4295,"8d4\n":4296,"3PK":4297,"2k2/p":4298,"5k2/6p1/":4299,"3K3R":4300,"6g5 <MOVE_SEP> d":4301,"2RR2K1 b - - ":4302,"n1pp":4303,"5Pk1/":4304,"2q1b":4305,"4p3/4P":4306,"5PPP/R":4307,"2NP2P1/":4308,"1KB1R w KQkq - 0 ":4309,"1P1K/":4310,"5 <MOVE_SEP> h6h":4311,"4rk":4312,"4p1pp/":4313,"1Q2B":4314,"8b8 <MOVE_SEP> d":4315,"1R1QK2R":4316,"2P1N3/":4317,"8b8 <MOVE_SEP> c":4318," White <MOVE_SEP> g2g3\n":4319,"b2/p":4320,"5N1P/PP":4321,"2 <MOVE_SEP> g1h":4322,"7 <MOVE_SEP> h5h":4323,"8/8/2K5/8/":4324,"1ppp1ppp/":4325,"1P3/8/":4326,"2q2pp1/":4327,"p6r/":4328,"2rn":4329,"1p2Q":4330,"1NP":4331,"8 w - - 6 6":4332,"5 <MOVE_SEP> g1h":4333,"6RP/":4334,"3B3p/":4335,"BP/R4R":4336,"5 <MOVE_SEP> c7c":4337,"2p2B":4338,"4 <MOVE_SEP> f6e":4339,"6q/":4340,"nppp/":4341,"1p3pbp/":4342,"R5K1 w - - ":4343,"rr4k1/":4344,"6K1 b - - 1":4345,"R6/":4346,"2/P4P2/":4347,"8/8/8/5K2/":4348,"2 <MOVE_SEP> h6h":4349,"2N2N1P/PP":4350,"3R2K1 b - - 0 3":4351,"2N3P1/PP2PP":4352,"p2b4/":4353,"8 w - - 7 6":4354,"3 <MOVE_SEP> b6b":4355,"2PB1N":4356,"3pP3/3P4/":4357,"1p2k3/":4358,"6P1/6K1/":4359,"1Q5/":4360,"2RR2K1 w - - ":4361,"5RK1 w - - 0 3":4362,"1P1B4/":4363,"8/K7/":4364,"1b1 <MOVE_SEP> c":4365,"8/1Q":4366,"1NK":4367,"8 <MOVE_SEP> a3a":4368,"1R1B":4369,"6KR":4370,"rnbqkbnr/ppp1pppp/8/3p4/8/":4371,"5K2 w - - 0 4":4372,"1b2q":4373,"1kn":4374,"2K2P2/":4375,"5n1/":4376," w KQk - 0 1":4377,"NB1/":4378,"K1 w k - 0 2":4379,"2Pr":4380,"2Nn":4381,"5c6 <MOVE_SEP> e":4382,"1B4P1/":4383,"2PBP/":4384,"3bp/":4385,"1P3P/":4386,"3K2P1/":4387,"6Q/":4388,"3R1":4389,"3 White <MOVE_SEP> b1c3\n":4390,"1K1 w - - 1 1":4391,"1bN":4392,"2 Black <MOVE_SEP> g7g6\n":4393,"1p3B":4394,"2P3P1/P":4395,"1R5R":4396,"p3P/":4397,"4e5 <MOVE_SEP> g":4398,"4 <MOVE_SEP> b3b":4399,"6 <MOVE_SEP> a7a":4400,"5B2 b - - ":4401,"2p1pn2/8/":4402,"8/8/K":4403,"PP1/R2Q1R":4404,"5e4 <MOVE_SEP> g":4405,"3P2PP/":4406,"3q2/":4407,"8 w - - 2 8":4408,"4B3 b - - ":4409,"4 <MOVE_SEP> h2g":4410,"1f1 <MOVE_SEP> g":4411,"8f8 <MOVE_SEP> c":4412,"R6K":4413,"1b3ppp/":4414,"5pK1/":4415,"1p3np1/":4416,"3r1r2/":4417,"5n2/p":4418," Black <MOVE_SEP> g7g6\n":4419,"1e4\n":4420,"3BR":4421,"2b3p1/":4422,"4R2p/":4423,"Q1RK1 w - - 0 1":4424,"3 <MOVE_SEP> a2a":4425,"1Bb":4426,"n2p":4427,"5 <MOVE_SEP> h7g":4428,"1br":4429,"B1P/":4430,"5PBP/":4431,"8 w - - 3 3":4432,"Nb":4433,"4PN2/PPP2PPP/R":4434,"2r3p1/":4435,"4d5 <MOVE_SEP> g":4436,"8c7 <MOVE_SEP> e":4437,"1PPP/R3KB1R":4438,"1K1 b - - 1 1":4439,"3 <MOVE_SEP> h2g":4440,"7 <MOVE_SEP> a5a":4441,"2R1B":4442,"2/1P1B":4443,"4B2p/":4444,"2k1p/":4445,"2 <MOVE_SEP> h4h":4446,"b1k1/":4447,"1p1/6P1/":4448,"3p2B1/":4449,"8d8 <MOVE_SEP> g":4450,"1pn1p3/":4451,"pp2bppp/":4452,"4 w - - 0 3":4453,"3BN":4454,"3 <MOVE_SEP> g1h":4455,"6e5 <MOVE_SEP> e":4456,"3n1p/":4457,"8/1k6/8/":4458,"3p4/3PP3/":4459,"RP":4460,"7b/8/":4461,"3e2 <MOVE_SEP> d":4462,"1q4p1/":4463,"3N3p/":4464,"4e3 <MOVE_SEP> c":4465,"1p2pppp/":4466,"3d2 <MOVE_SEP> f":4467,"4h6\n":4468,"3 <MOVE_SEP> h3h":4469," w KQq - ":4470,"1e1 <MOVE_SEP> g":4471,"3d4 <MOVE_SEP> d":4472,"2 <MOVE_SEP> a4a":4473,"3NP1/":4474,"1r4p1/":4475,"8/8/2k5/8/":4476,"3 <MOVE_SEP> b2b":4477,"4k1r1/":4478,"7k/8/8/":4479,"1P2P1/":4480,"1KP1/":4481,"p7/Pp":4482,"r2qk1nr/":4483,"7f6 <MOVE_SEP> c":4484," White <MOVE_SEP> b1c1\n":4485,"pp4/":4486,"2N5/PP2PPPP/R1B":4487,"1r5r/":4488,"1Q1N":4489,"8/4K3/8/":4490,"8/8/8/2k":4491,"3f4 <MOVE_SEP> c":4492,"1QP":4493,"3N1P/":4494,"2Pn4/":4495,"6e7 <MOVE_SEP> d":4496,"2p5/3PP3/":4497,"6f5 <MOVE_SEP> c":4498,"6d5 <MOVE_SEP> d":4499,"r2p":4500,"2bn":4501,"1Q4/":4502,"1 b Q - ":4503,"4K1k1/":4504,"6BK/":4505,"1 b - - 1 2":4506,"4kb1r/":4507,"6d7 <MOVE_SEP> c":4508,"6g7 <MOVE_SEP> f":4509,"5d6 <MOVE_SEP> f":4510,"5B2 w - - ":4511,"5 <MOVE_SEP> b6b":4512,"1pp3p1/":4513,"3k1p2/":4514," White <MOVE_SEP> e1g1\n":4515,"pp/8/":4516,"2K/8/":4517,"6c5 <MOVE_SEP> f":4518,"3p1n1p/":4519,"8f7 <MOVE_SEP> d":4520,"4B3 w - - ":4521,"1p6/pP":4522,"1/R1B2R":4523,"2PP4/P":4524,"2pp1np1/":4525,"3P2P1/P":4526,"6 <MOVE_SEP> b3b":4527,"1pp1p3/":4528,"PP1/R2QK2R":4529,"8e8 <MOVE_SEP> g":4530,"PBQ":4531,"5K2 b - - 0 4":4532,"3r1r1k/":4533,"4QP2/":4534,"p1b5/":4535,"5b6 <MOVE_SEP> c":4536,"p5b":4537,"1PP3/":4538,"3 w Q - ":4539,"1p1pp1/":4540,"2BP":4541,"4b5 <MOVE_SEP> d":4542,"4b3 <MOVE_SEP> c":4543,"2K4p/":4544,"8 b - - 5 7":4545,"1 w - - 1":4546,"3pP3/P":4547,"4B1K1/":4548,"rnbqkb1r/pp1ppp1p/":4549,"r2k/":4550,"1K2R w KQkq - 0 1":4551,"ppp1/":4552,"3 White <MOVE_SEP> g1f3\n":4553,"5g4 <MOVE_SEP> d":4554,"1q5p/":4555,"5K1p/":4556,"K1 b kq - 3 1":4557,"rnb1k1nr/pp":4558,"6k1/5pp1/":4559,"6K1/8/8/":4560,"p3p3/8/":4561,"1pP3/":4562,"p1p3p1/":4563,"6f7 <MOVE_SEP> e":4564,"3n3P/":4565,"2N2NP1/PP1PP":4566,"1K1R4 b - - ":4567,"4K3/8/8/8/":4568,"8/1r6/":4569,"2R3p1/":4570,"3R2K1/":4571,"3h5\n":4572,"1r1b":4573,"4g3 <MOVE_SEP> e":4574,"r4p":4575,"5b4 <MOVE_SEP> d":4576,"6 <MOVE_SEP> b7b":4577,"r2q1rk1/pb":4578,"Pp1p":4579,"p3pn1p/":4580,"9 2":4581,"3b3P/":4582,"1k6/8/8/":4583,"1k3/8/":4584,"8/p7/P":4585,"3B1R":4586,"1BP1/":4587,"2 White <MOVE_SEP> e2e4\n":4588,"1p1r4/":4589,"8 w - - 1 9":4590,"2 b - - 2 3":4591,"5d4 <MOVE_SEP> g":4592,"1P1P/R1B":4593,"3R2K1 b - - 0 2":4594,"Pp4/":4595,"3 b - - 1 2":4596,"1h5\n":4597,"1p1p2/":4598,"2N2N2/PP2PPPP/R1B":4599," b - - 1 4":4600,"4d3 <MOVE_SEP> f":4601,"PN2/":4602,"6e7 <MOVE_SEP> f":4603,"2r3P1/":4604,"1g2 <MOVE_SEP> b":4605,"2N3P1/PP1PP":4606,"6K1 w - - 1":4607,"8f7 <MOVE_SEP> e":4608,"P4PP1/":4609,"N2R":4610,"1p3pb1/":4611,"6K1 w - - 0 5":4612,"3c4 <MOVE_SEP> e":4613,"8/8/8 w - - 4":4614,"1d2 <MOVE_SEP> e":4615,"BNR":4616,"1PN2N":4617,"1b1r":4618,"b7/8/":4619,"b1g":4620,"2K5/8/8/":4621,"2p3k1/":4622,"3g4 <MOVE_SEP> c":4623,"rnbqkb1r/pppppppp/5n2/8/8/":4624,"5PK":4625,"2N2NP1/":4626,"r1bqk2r/pp2bppp/":4627,"p4B":4628,"3e4 <MOVE_SEP> e":4629,"p1p5/P":4630,"3 <MOVE_SEP> g2g":4631,"2pPP":4632,"r1r5/":4633,"2 <MOVE_SEP> d7d":4634," w - - 3 3":4635,"nP/":4636,"4N2p/":4637,"2PQ4/":4638,"6d3\n":4639,"3R2p1/":4640,"8/8/8 b - - 4":4641,"1P2B3/":4642,"5K1 b - - 0 2":4643,"1/P5P1/":4644,"2PP/R1B":4645,"3p4/3P4/5N2/PPP1PPPP/R":4646,"rn1qk2r/pb":4647,"6K1 b - - 0 5":4648,"bk/":4649,"rp":4650,"1B1P1/":4651,"6f5 <MOVE_SEP> g":4652,"2Q1N":4653,"8/8/4p3/":4654,"2q2p2/":4655,"1N1PPP/R1B":4656,"7k/6p1/":4657,"1P4B":4658,"1 14":4659,"1 <MOVE_SEP> a6a":4660,"6Bp/":4661,"8/3K4/8/":4662,"1bp1/":4663,"1p1n1pp1/":4664,"3R2K1 w - - 0 3":4665,"7e6 <MOVE_SEP> d":4666,"6 <MOVE_SEP> h6h":4667,"1K2R b KQkq - 0 1":4668,"3K3p/":4669,"5qp1/":4670,"4R1K1 b - - 0 2":4671,"1f1 <MOVE_SEP> c":4672,"1 b - - 1":4673,"4pb2/":4674,"QK2R b KQ - ":4675,"1e5\n":4676,"5 <MOVE_SEP> a6b":4677,"BP/R1B2R":4678,"4PP/R1B":4679,"1 <MOVE_SEP> h6h":4680,"6h4\n":4681,"2N2Q":4682,"5K2/8/8/8/":4683,"2 <MOVE_SEP> g2g":4684,"BP2P":4685,"1n1pp1/":4686,"1p4K1/":4687,"3 b Q - ":4688,"P2P2P1/":4689,"8/8/8/7p/":4690,"r1bqkbnr/pp1ppppp/":4691,"2k1r":4692,"5N2/P":4693,"p1nppp/":4694,"1R1QR":4695,"3pk":4696,"5g6 <MOVE_SEP> e":4697,"8b7 <MOVE_SEP> e":4698,"3k/8/":4699,"P2r":4700,"2nN":4701,"1p3K":4702,"PPPPN":4703,"KP6/":4704,"4P3/2N5/PPPP1PPP/R1B":4705,"3d2 <MOVE_SEP> c":4706,"6b/":4707,"1nN":4708,"1d2 <MOVE_SEP> f":4709,"PP2PN":4710,"1Pp2/":4711,"3e6\n":4712,"0 14":4713,"1PK5/":4714,"4K1/8/":4715,"8 b - - 6 4":4716,"1pp4p/":4717,"6e5 <MOVE_SEP> g":4718,"R2R":4719,"1K3/8/":4720,"3d6\n":4721,"8b7 <MOVE_SEP> f":4722,"2P1P3/8/":4723,"5QP1/":4724,"8/3Q":4725,"NBQKB1R w KQkq - 1 5":4726,"rn1qkb1r/pb":4727,"1p4b1/":4728,"3pq":4729,"3p1b2/3P4/":4730," w - - 1 1":4731,"1pnp1/":4732,"8/6r1/":4733,"2KP/":4734,"6K1 b - - 0 2":4735,"RQ":4736,"1PPPPP/R1B":4737,"3BP/":4738,"4P2/8/":4739,"8/1K":4740,"4p3/8/8/":4741,"1P2K3/":4742,"4P1B1/":4743,"1p3k2/":4744,"1/R7/":4745,"BK/":4746,"2kp1/":4747,"K1 b k - 0 2":4748,"8/4P3/":4749,"rnq":4750,"2r1q":4751,"1Np/":4752,"1g4\n":4753,"2B2P2/":4754,"2Pp1/":4755,"1d1 <MOVE_SEP> b":4756,"6e3\n":4757,"p4/8/":4758,"3 <MOVE_SEP> g2h":4759," b Kkq - 1 1":4760,"8/Q":4761,"3PQ":4762,"5b4 <MOVE_SEP> f":4763,"3k2p1/":4764,"3f4 <MOVE_SEP> g":4765,"7f7 <MOVE_SEP> f":4766,"BPN":4767,"1PQ1B":4768,"PP2P":4769,"1Np5/":4770,"8/8/k7/":4771,"2k3/8/":4772,"6c7 <MOVE_SEP> e":4773,"5pP/":4774,"2 14":4775,"1b1pp/":4776,"r4P2/":4777,"5N2/PPPN":4778,"1P1P3P/":4779,"1f2 <MOVE_SEP> d":4780,"3p3n/":4781,"8/5K2/8/":4782,"1rbq":4783,"4a2\n":4784,"/P6P/":4785,"6Kp/":4786,"1P1K4/":4787,"6 <MOVE_SEP> d1c":4788,"8 b - - 7 5":4789,"6g7 <MOVE_SEP> e":4790," w k - 0 2":4791,"4p1B1/":4792,"2q3k1/":4793,"PP2P3/":4794,"1PP2PP1/R1B":4795,"PPP1PPPP/RN1":4796,"R4B":4797,"2rb":4798,"1PP2PPP/R":4799,"3nk":4800,"1R b - - 0 1":4801,"p4np1/":4802,"1pppp/":4803," White <MOVE_SEP> f1g2\n":4804,"r5r1/":4805,"2P3/P":4806," White <MOVE_SEP> d2d3\n":4807,"2nP":4808,"1Q5P/":4809,"4p3/3PP3/":4810,"8b7 <MOVE_SEP> d":4811,"1P3PP1/R1B":4812,"3c2 <MOVE_SEP> e":4813,"1nP5/":4814,"p3ppbp/":4815,"r3p":4816,"n1p1/":4817,"3 w - - 1 3":4818,"4pB":4819,"2/1P3P2/":4820,"3a1\n":4821,"4 <MOVE_SEP> a3b":4822," White <MOVE_SEP> e4e5\n":4823,"4b2P/":4824,"P1B1/":4825,"2P2B2/":4826,"1Q1P/":4827,"1d1 <MOVE_SEP> g":4828,"6g5 <MOVE_SEP> c":4829,"1p1b1ppp/":4830,"6bk/":4831,"4e3 <MOVE_SEP> f":4832,"qN":4833,"3PN3/":4834,"5b1r/":4835,"3e2 <MOVE_SEP> f":4836,"7e7 <MOVE_SEP> e":4837,"3 14":4838,"1P2r":4839,"3k2/8/":4840,"2d3 <MOVE_SEP> e":4841,"1kb":4842,"4n1k1/":4843,"p4R":4844,"1f2 <MOVE_SEP> e":4845,"2 b - - 2 2":4846,"4e5 <MOVE_SEP> e":4847,"5pk/":4848,"1PP4P/":4849,"1p3pk1/":4850,"K1R":4851,"NBQ1RK1 b kq - ":4852,"2b5\n":4853,"4N3/P":4854,"7 <MOVE_SEP> c2c":4855,"pPn":4856,"1p5r/":4857,"2ppb1/":4858,"3P1NP1/":4859,"4k2P/":4860,"p1P5/P":4861," Qkq - 0 1":4862,"3f2 <MOVE_SEP> e":4863," White <MOVE_SEP> f1d3\n":4864,"5c4 <MOVE_SEP> b":4865,"1p4/P":4866,"2r1r":4867,"1RBQK2R":4868,"2R2P2/":4869,"6P1/7P/":4870," w KQ - 3 1":4871,"1PQN":4872,"2p1Q":4873,"8/4r":4874,"2b1P3/":4875,"8h4\n":4876,"pqn":4877,"R2Q1R":4878,"1B6 b - - ":4879,"5N/":4880,"2P1PN":4881,"3g2 <MOVE_SEP> f":4882,"4RP2/":4883,"p4pbp/":4884,"5kp/":4885,"1pn5/":4886,"1r1r":4887,"2 White <MOVE_SEP> e2e3\n":4888,"PP3P1P/":4889,"6c7 <MOVE_SEP> f":4890,"8 b - - 6 7":4891,"2 w - - 2 2":4892,"6bP/":4893,"7 <MOVE_SEP> a6a":4894,"1Nb":4895,"6K1 b - - 2 3":4896,"5e4 <MOVE_SEP> e":4897,"2 <MOVE_SEP> a3a":4898,"2PP2/":4899,"K1 b - - 4 1":4900,"6 <MOVE_SEP> g1h":4901,"q1p/":4902,"5 <MOVE_SEP> b1d":4903,"6a4\n":4904,"5h3\n":4905,"P2/PP":4906,"2 w - - 1 4":4907,"2R3/":4908,"1qb":4909,"2f2 <MOVE_SEP> f":4910,"3R4 b - - 0 3":4911,"2N2N2/PP3PPP/R1B":4912,"P/R4R":4913,"3 b - - 1 3":4914," White <MOVE_SEP> f1e2\n":4915,"2KP1/":4916,"6c7 <MOVE_SEP> d":4917,"2p1R":4918,"3r2P1/":4919,"np/":4920,"1np/":4921,"3e2 <MOVE_SEP> c":4922,"2N5/PPP1PPPP/R":4923,"2pP4/2P5/":4924,"p3pp2/":4925,"2P2K2/":4926,"3pP2P/":4927,"rnbqkbnr/pppppppp/8/8/4P3/8/PPPP1PPP/RNBQKBNR b KQkq - 0 1 Black <MOVE_SEP> e7e5\n":4928,"rnbqkbnr/pppp1ppp/8/4p3/4P3/8/PPPP1PPP/RNBQKBNR w KQkq - 0 ":4929," b - - 3 3":4930,"4g5 <MOVE_SEP> c":4931,"N3/P":4932,"6P1/5P2/":4933,"8/8/8/1k":4934,"1n5/":4935,"Q2P":4936,"p1pp1p/":4937,"PP1P1PPP/RNBQKBNR b KQkq - 0 ":4938,"1R w - - 1 2":4939,"3p1b2/2PP4/":4940,"4b3 <MOVE_SEP> d":4941,"2p1p3/2P5/":4942,"5k2/7p/":4943,"1qp1p":4944,"7 <MOVE_SEP> g7g":4945,"3 White <MOVE_SEP> g2g3\n":4946,"2 <MOVE_SEP> h3h":4947,"1b2 <MOVE_SEP> e":4948,"3K2R w KQkq - 0 1":4949,"1e2 <MOVE_SEP> g":4950,"1p1b1/":4951,"QKBNR w KQkq - 2 3":4952,"PPn":4953,"2PP/P":4954,"3p1q":4955,"1P2PN2/PB":4956,"2PP3P/":4957,"rnbqk2r/ppp1bppp/":4958,"1rB":4959,"p1np1n":4960,"5K2 b - - 0 3":4961,"3PP2/":4962,"8/8/K7/":4963,"2e3 <MOVE_SEP> d":4964,"3R4 w - - 0 3":4965,"6 <MOVE_SEP> g5f":4966,"K1 b - - 0 4":4967,"2PP1N":4968,"6N1/8/":4969,"1R1K":4970,"3g2 <MOVE_SEP> e":4971,"8 b - - 3 8":4972,"4 14":4973,"5n/":4974,"1k2/p":4975,"1r3P2/":4976,"r1b2r1k/":4977,"2P5/5N2/PP1PPPPP/R":4978,"3 w - - 1":4979,"3 <MOVE_SEP> g8h":4980,"7e6 <MOVE_SEP> c":4981,"1B6 w - - ":4982,"2P1n3/":4983,"2K1B":4984,"rnbqkb1r/pppp1ppp/5n2/":4985,"8c7 <MOVE_SEP> d":4986,"2kr/":4987,"2f3 <MOVE_SEP> f":4988,"7 <MOVE_SEP> b3b":4989,"6d5 <MOVE_SEP> g":4990,"3 Black <MOVE_SEP> g8f6\n":4991,"2P3K1/":4992,"4 <MOVE_SEP> h7g":4993,"1P1pP":4994,"1QK":4995,"4PB2/":4996,"8 <MOVE_SEP> h5h":4997,"1P3PPP/R":4998,"Bn":4999,"4 <MOVE_SEP> b1c":5000,"1PP1P/":5001,"5a3\n":5002,"2e2 <MOVE_SEP> e":5003,"5b6 <MOVE_SEP> d":5004,"1RN":5005,"2b1pp/":5006,"QKB1R b KQkq - 1 3":5007,"2r1kb1r/":5008,"8/8/8/8 b - - 1":5009,"2np1n2/":5010,"4/P5P1/":5011,"4b5 <MOVE_SEP> f":5012,"1b3p2/":5013,"7d6 <MOVE_SEP> e":5014,"1bp":5015,"3g1\n":5016,"2PP4/8/PP2PPPP/RNBQKBNR b KQkq - 0 ":5017,"8/8/7P/":5018,"1p5k/":5019,"3QP3/":5020,"5d4 <MOVE_SEP> d":5021,"2RN":5022,"4bk2/":5023,"1R4p1/":5024,"2/PP3PPP/R1B":5025,"4rk1/":5026,"8g5\n":5027,"R1P":5028,"4R1p1/":5029,"4QK":5030,"5K1/8/":5031,"p6k/":5032,"8 w - - 6 4":5033,"p2p3/":5034,"r4p2/":5035,"2N2N2/PP1PPPPP/R1B":5036,"2ppp1/":5037,"1P1R4/":5038,"2p3B1/":5039," b KQq - ":5040,"2pP1/":5041,"8/8/1P":5042,"1rk":5043,"4n2P/":5044,"8c8 <MOVE_SEP> g":5045,"3R1K1R":5046,"3Q4 b - - ":5047,"2/1P2B":5048,"2QK2R w KQkq - 0 1":5049,"3P4/8/PPP1PPPP/RNBQKBNR w KQkq - 1 2":5050,"rnbqkb1r/pppppppp/5n2/8/3P4/8/PPP1PPPP/RNBQKBNR w KQkq - 1 2":5051,"d2d4 <MOVE_SEP> g8f":5052,"rnbqkbnr/pppppppp/8/8/3P4/8/PPP1PPPP/RNBQKBNR b KQkq - 0 1 Black <MOVE_SEP> g8f6\n":5053,"2k3r1/":5054,"P1P3/":5055,"1bp2/":5056,"2P1K/":5057,"K1 b k - 1 1":5058,"6 <MOVE_SEP> g5h":5059,"3c2 <MOVE_SEP> d":5060,"8/8/6k1/8/":5061,"3e4 <MOVE_SEP> g":5062,"3 <MOVE_SEP> a3a":5063,"rnbqr1k1/":5064,"3K2k1/":5065,"2PPp3/":5066,"b3p":5067,"4b1pp/":5068,"2/1P5P/":5069,"2R2":5070,"PPPP/R1B":5071,"p2n4/":5072,"p1/8/2PP4/":5073,"8/8 b - - 0 5":5074,"1d2 <MOVE_SEP> c":5075,"R1Q":5076,"6kP/":5077,"N1Q":5078,"1r1p/":5079,"3BQ":5080,"3K2R b KQkq - 0 1":5081,"R5/":5082,"8d8 <MOVE_SEP> b":5083,"1p1Pp":5084,"2k4P/":5085,"8f7 <MOVE_SEP> c":5086,"n2/p":5087,"2r2P2/":5088,"p2pP3/":5089,"3pPp":5090,"P1P1P3/":5091,"kq ":5092,"1p1K":5093,"7 <MOVE_SEP> h6h":5094,"10 5":5095,"2n1b3/":5096,"4R2R":5097,"5 <MOVE_SEP> h2g":5098,"3 White <MOVE_SEP> d2d4\n":5099,"3p1B":5100,"PP3P1P/R":5101,"8/2Q":5102,"6f7 <MOVE_SEP> d":5103,"8e4\n":5104,"p3k3/":5105,"1nq":5106,"8g8 <MOVE_SEP> a":5107,"p1r5/":5108,"4a6\n":5109,"1e1 <MOVE_SEP> b":5110,"8/2K5/8/":5111,"2pp3p/":5112,"n2/2p5/":5113,"1p1nbppp/":5114,"7a8q\n":5115,"4g3 <MOVE_SEP> d":5116,"8/3N":5117,"2nB":5118,"8 w - - 0 9":5119,"2k4p/":5120,"PP1/R1B2R":5121,"7d7 <MOVE_SEP> d":5122,"5K1 w - - 0 2":5123,"5c6 <MOVE_SEP> f":5124,"8/B":5125,"8 b - - 4 8":5126,"4bp1p/":5127,"3c4 <MOVE_SEP> f":5128,"2b4P/":5129,"8/8/8/2K5/":5130,"1K1 w - - 2 2":5131,"1p2n3/":5132,"pbppp/":5133,"6a8\n":5134,"3P1P1P/":5135,"2n1p":5136,"3qr1k1/":5137,"2/1P4P1/":5138,"4e1\n":5139,"5a7\n":5140,"8 b - - 7 6":5141,"8/8/8/8 w - - 1":5142,"3q1p2/":5143,"r1b1q":5144,"1c1 <MOVE_SEP> b":5145,"3PPP":5146,"1k2r3/":5147," White <MOVE_SEP> b1a1\n":5148,"bn1p/":5149,"2KR2R":5150,"4r2P/":5151,"5 14":5152,"rnbqkbnr/ppp1pppp/8/3p4/":5153,"8/8/8/3k":5154,"1pq2ppp/":5155,"1r1qk2r/":5156,"3P1P/R":5157,"6Rp/":5158,"6 <MOVE_SEP> a6a":5159,"p1pP":5160,"1Bp5/":5161,"3np1/":5162,"8 w - - 7 7":5163,"3d5 <MOVE_SEP> e":5164,"pp1ppp/2n2n2/":5165,"1KP5/":5166,"2P1P1P1/":5167,"1p1q4/":5168,"K1 w - - 4 1":5169,"4b3 <MOVE_SEP> e":5170,"4q2/":5171,"d2d4 <MOVE_SEP> d7d":5172,"rnbqkbnr/pppppppp/8/8/3P4/8/PPP1PPPP/RNBQKBNR b KQkq - 0 1 Black <MOVE_SEP> d7d5\n":5173,"rnbqkbnr/ppp1pppp/8/3p4/3P4/8/PPP1PPPP/RNBQKBNR w KQkq - 0 ":5174,"4e5 <MOVE_SEP> b":5175,"4f3 <MOVE_SEP> c":5176,"2rr4/":5177,"1nk":5178,"4c3 <MOVE_SEP> f":5179,"p2P4/P":5180,"2pq4/":5181,"1 Black <MOVE_SEP> e7e6\n":5182,"3b1n2/":5183,"PPP/R1BQK2R b KQkq - ":5184,"7e6 <MOVE_SEP> f":5185,"2N5/PP3PPP/R1B":5186,"p1n1pn2/":5187,"4P1PP/":5188,"4p1b1/":5189,"1P1P4/P":5190,"pp2ppbp/":5191,"5Bp1/":5192,"2br":5193,"2n1pn1p/":5194,"1 <MOVE_SEP> h4h":5195,"8g8 <MOVE_SEP> b":5196,"1R3B":5197,"2f4 <MOVE_SEP> e":5198,"5K2 w - - 0 3":5199,"p2r4/":5200,"b1h":5201,"1PP4/":5202,"r2qk2r/pb":5203,"3R2K1 w - - 0 2":5204,"8/5R":5205,"3q3/":5206,"6P1/PP":5207,"1P/P5P1/":5208,"2N1B2P/":5209,"1P2PN2/P":5210,"3P2/8/":5211,"5g6 <MOVE_SEP> d":5212,"2P2b":5213,"2d2 <MOVE_SEP> d":5214,"4B1p1/":5215,"3a5\n":5216,"r1bqkbnr/pppp1ppp/2n5/":5217,"2k2r/":5218,"B2P/":5219,"8g7 <MOVE_SEP> g":5220,"p1k5/":5221,"5Kp1/":5222,"bn2/":5223,"6e7 <MOVE_SEP> c":5224,"4P1p/":5225,"2QKB1R w KQkq - 0 1":5226,"2P2R":5227,"8/8/P7/":5228,"1pk5/":5229,"NBQK1NR b KQkq - ":5230,"2n1p3/8/":5231,"5g4 <MOVE_SEP> c":5232,"2/1P3PPP/R1B":5233,"2N1PN2/PP3PPP/R1B":5234,"rnbqkb1r/pp2pppp/5n2/":5235,"P3b":5236,"3r1p2/":5237,"4N1p1/":5238,"6rP/":5239,"NBQKB1R w KQkq - 2 3":5240,"4R3 b - - 0 3":5241,"8d7 <MOVE_SEP> a":5242,"p4n1p/":5243,"2p5/4P3/5N2/PPPP1PPP/R":5244,"1pb/":5245,"2PB1N2/PP":5246,"N1QK2R b KQkq - ":5247,"Q2PPP/R":5248,"2f1 <MOVE_SEP> e":5249,"5N2/PP3PPP/R":5250,"1K2R b KQ - 0 1":5251,"2p2r":5252,"q1pppp/":5253,"10 6":5254,"2Q2R":5255,"1P2/p":5256,"6K1 w - - 2 3":5257,"p3/4P3/":5258,"2pPp3/":5259,"n1p5/":5260,"p1p2p2/":5261,"8 w - - 5 8":5262,"3f2 <MOVE_SEP> d":5263,"6 14":5264,"k6/":5265,"p5b1/":5266,"3kp/":5267,"rN":5268,"3nbppp/":5269,"4c5 <MOVE_SEP> g":5270,"2KN":5271,"1f2 <MOVE_SEP> c":5272,"1bb":5273,"p1p1n":5274,"3d4 <MOVE_SEP> g":5275,"1R2B":5276,"K1 w k - 1 1":5277,"6d4 <MOVE_SEP> e":5278,"7h4\n":5279,"4h2\n":5280,"1P3PPP/":5281,"P1/P4P":5282,"BK":5283,"4R1K1 w - - 0 2":5284,"5f6 <MOVE_SEP> c":5285,"1P1N4/":5286,"2b2p2/":5287,"2bb":5288,"K1 b - - 4 2":5289,"3 w - - 0 4":5290,"5b6 <MOVE_SEP> e":5291,"4qp2/":5292,"P4K":5293,"2d3 <MOVE_SEP> f":5294,"r1bqkbnr/pp1ppppp/2n5/":5295,"8/q":5296,"2c6\n":5297,"rnbqkb1r/p1pp":5298,"5P2/6K1/":5299,"2 b - - 1 4":5300,"rn1qkb1r/pp2pppp/":5301,"rnbqkb1r/pp2pppp/2p2n2/":5302,"8/3p":5303,"6g7 <MOVE_SEP> d":5304,"4R3 w - - 0 3":5305,"7e5 <MOVE_SEP> d":5306,"1pB/":5307,"3b1pp1/":5308,"5qk1/":5309,"1K1 b - - 2 2":5310,"2np1np1/":5311,"8d7 <MOVE_SEP> b":5312,"1P2/PP":5313,"2K3P1/":5314,"2npb":5315,"2d3 <MOVE_SEP> c":5316,"2a1q\n":5317,"3/2P1P3/":5318,"ppN":5319,"r2qk1nr/pp":5320,"PPK":5321,"2P1P/R1B":5322,"8/6b1/":5323,"5BK1/":5324,"4d5 <MOVE_SEP> b":5325,"3/P6P/":5326,"2PP2P1/":5327,"NBQ1RK1 w kq - ":5328,"4PP1/R":5329,"2p5/3P4/":5330,"4RK2/":5331,"5k1P/":5332,"pB6/":5333,"3Q4 w - - ":5334,"1P5K/":5335,"4NP2/":5336,"r1bq1rk1/pp1n":5337,"7 14":5338,"2 <MOVE_SEP> b6b":5339,"8c8 <MOVE_SEP> b":5340,"5c4 <MOVE_SEP> g":5341,"2B4p/":5342,"3K2R b KQkq - ":5343,"2pB4/":5344,"1rr3k1/":5345,"2kr1b1r/pp":5346,"1K1R4 w - - ":5347,"2f1 <MOVE_SEP> d":5348,"P1/P3PP":5349,"P2/p":5350,"3c2 <MOVE_SEP> f":5351,"3KB1R w KQkq - 0 1":5352,"2PBP/R1B":5353,"6K1 b - - 2 4":5354,"3 w - - 1 2":5355,"p4P2/P":5356,"8/8/r7/":5357,"p1n2n2/":5358,"2K1P/":5359,"1N4P1/":5360,"2q4/":5361,"p1n1p2p/":5362,"1 <MOVE_SEP> a4a":5363,"8/8 b - - 0 6":5364,"K2/8/":5365,"8/5kp1/":5366,"4c1\n":5367,"7f8 <MOVE_SEP> e":5368,"2c3 <MOVE_SEP> d":5369,"1p4p/":5370,"pn/":5371,"6k1 w - - ":5372,"2pP3P/":5373,"rnbqkb1r/pppppp1p/":5374,"1R w - - 0 1":5375,"7d6 <MOVE_SEP> f":5376,"1PP3P1/":5377,"8/8/8/2k5/":5378,"1P/RNBQKB1R w KQkq - 0 ":5379,"1P2PN1P/":5380,"R1R":5381,"p1b1/":5382,"2pP4/P":5383,"7P/6K1/":5384,"4p3/2B1P3/":5385,"1p3R":5386,"p2p1np1/":5387," Black <MOVE_SEP> f8g7\n":5388,"B1Q":5389,"2p2N":5390,"3 <MOVE_SEP> b4a":5391,"5e8\n":5392,"3rk2r/pp":5393,"P1PN":5394,"3 b - - 1":5395,"6P1/5K2/":5396,"3p4/1b":5397,"8/8/8/6k1/":5398,"4k/8/":5399,"3NQ":5400,"8 14":5401,"8/3P4/":5402,"3rq":5403,"2r2r2/":5404,"8 w - - 9":5405,"3p2/8/":5406,"2c3 <MOVE_SEP> e":5407,"rP":5408,"2bp2/":5409,"8 w - - 6 7":5410,"2B1p3/":5411,"2kn":5412,"1 w - - 1 2":5413,"pp1pp":5414,"PPPP1PP1/R1B":5415," w kq - 0 2":5416," w - - 0 5":5417,"2pP4/8/":5418,"3B2p1/":5419,"1P1B1/":5420,"1p2r3/":5421,"2p2b2/":5422," b k - 0 2":5423,"RK":5424,"7p/6p1/":5425,"4KP/":5426,"r1b4r/":5427,"5h7\n":5428,"8 b - - 9":5429,"1Q2PN":5430,"2e3 <MOVE_SEP> c":5431,"1p3p2/1P":5432,"4pN":5433,"2B3":5434,"3pP2p/":5435,"8/2K":5436,"1P1BPN":5437,"5f4 <MOVE_SEP> f":5438,"q1p5/":5439,"P1P2P2/":5440,"1q1b":5441,"1R1N":5442,"B3P":5443,"1PP1PP":5444," w - ":5445,"2QKBNR b KQkq - ":5446,"1p2N3/":5447,"r3k1nr/pp":5448,"1P2q":5449,"7d6 <MOVE_SEP> c":5450,"3g2 <MOVE_SEP> d":5451,"1P/PP3PP1/R1B":5452,"PB2/":5453,"3p1pp1/":5454,"3R4 b - - 0 4":5455,"1d8\n":5456,"P2PP":5457,"2Q2PP1/":5458,"1PP2PP1/":5459,"5P2/5K2/":5460,"B7 b - - ":5461,"6 <MOVE_SEP> e4e5 <MOVE_SEP> f":5462,"8 <MOVE_SEP> a5a":5463,"5RK1 w - - 1 3":5464,"pp2n":5465,"8 b - - 8 5":5466,"5b2/p":5467,"6QP/":5468,"b1B":5469,"r3kbnr/pp":5470,"R5P1/":5471,"1K1 w - - 1 3":5472,"7K b - - 0 4":5473,"1Pp1p":5474,"1q4/":5475,"5r1P/":5476,"4QR":5477,"2P1P3/P1N":5478,"4f5 <MOVE_SEP> f":5479,"8g8 <MOVE_SEP> h":5480,"2p1p3/P":5481,"1pb5/":5482,"3KB1R b KQkq - 0 1":5483,"1NN":5484,"3k3P/":5485,"rp1/":5486,"7e7 <MOVE_SEP> f":5487,"1P3PP":5488,"1p1pP3/":5489,"3 <MOVE_SEP> g4h":5490,"4 <MOVE_SEP> a8a":5491,"4Q2p/":5492,"2q1p3/":5493,"2P1K3/":5494,"1b2 <MOVE_SEP> f":5495,"1RB1K2R":5496,"rn1q1rk1/pb":5497,"1rb1k2r/":5498,"8h7 <MOVE_SEP> f":5499,"2kr1b1r/":5500,"Qp/":5501,"1P1/7P/":5502,"6f7 <MOVE_SEP> g":5503,"1R3P2/":5504,"1B1p4/":5505,"3QK2R":5506,"pp1r":5507,"3 <MOVE_SEP> b4c":5508,"3qk2r/":5509,"4pnp1/":5510,"r2q1r1k/":5511," w kq - 1 1":5512,"3/1P4P1/":5513,"8/3p4/":5514,"1 w - - 1 3":5515,"4np2/":5516,"npp":5517,"R2B":5518,"6n1/8/":5519,"2r1b":5520,"n2p/":5521,"Q1P/":5522,"7 <MOVE_SEP> a7a":5523,"2/1PP2PPP/R":5524,"8 b - - 8 6":5525,"4PN2/":5526,"1p1n1/":5527,"2N1P3/PP3PPP/R1B":5528,"3/P3B":5529,"6K1 w - - 2 4":5530,"P1B5/":5531,"p1qppp/":5532,"8/3q":5533,"2bB":5534,"2R3K1/":5535,"1KN":5536,"3n2P1/":5537,"P5K1/":5538,"r1q2rk1/":5539,"p4N":5540,"8f7 <MOVE_SEP> f":5541,"4ppbp/":5542,"pp2p2p/":5543,"4k2/8/":5544,"1k1r3r/":5545,"8/b":5546,"p3pp1p/":5547,"2N2B":5548,"1b2 <MOVE_SEP> d":5549,"ppk":5550,"3R1K2/":5551,"2r1r3/":5552,"1c2 <MOVE_SEP> e":5553,"8/8/3b":5554,"2Pp3/":5555,"1K2R w KQkq - ":5556,"r1N":5557,"6PB/":5558,"q2p4/":5559,"2R3K1 b - - 0 3":5560,"5p2/6p1/":5561,"1pn1pn2/":5562,"1Pk":5563,"4r2r/":5564,"4qk":5565,"2PK4/":5566,"P3/P1N":5567,"8/8/2p5/":5568,"r1b1k3/":5569,"B7 w - - ":5570,"8d1\n":5571,"2p2p2/p":5572,"4g3 <MOVE_SEP> c":5573,"6e7 <MOVE_SEP> g":5574,"rnbqkbnr/pp1ppp1p/":5575,"1P3P1P/R":5576,"2bp1p/":5577,"3N2p1/":5578,"P1/R1B":5579,"2 <MOVE_SEP> a2a":5580,"bb":5581,"1 b - - 1 3":5582,"1K2R w KQ - 0 1":5583,"2QK1NR":5584,"3bpn2/":5585,"6 <MOVE_SEP> c1e":5586,"5K2 b - - 1":5587,"r1bqkb1r/ppp2ppp/":5588,"Q1RK1 w - - 1 1":5589,"p2P1/":5590,"3e4 <MOVE_SEP> b":5591,"0 White <MOVE_SEP> e1g1\n":5592,"1P2/R1B":5593,"4pk":5594,"3k1p/":5595,"8/8/4K":5596,"1h6\n":5597,"2e4 <MOVE_SEP> d":5598,"1d6\n":5599,"p1Pp4/":5600,"P2B4/":5601,"5b6 <MOVE_SEP> f":5602,"3e5 <MOVE_SEP> d":5603,"PB1/R1B":5604,"1b1 <MOVE_SEP> g":5605,"7 <MOVE_SEP> h7g":5606,"1kr5/":5607,"1pP2/":5608,"1P1NB":5609,"q1P":5610,"6 <MOVE_SEP> b1c3 <MOVE_SEP> d7d":5611,"6d4 <MOVE_SEP> f":5612,"1p1b1pp1/":5613," w KQk - 1 1":5614,"PP3PP1/R1B":5615," Black <MOVE_SEP> c7c6\n":5616,"1p3n1p/":5617,"1d2 <MOVE_SEP> d":5618,"r2B":5619,"2f2 <MOVE_SEP> e":5620,"3f2 <MOVE_SEP> g":5621,"p1npp":5622,"1P3PK1/":5623,"rnbqk2r/pppp1ppp/":5624,"2 Black <MOVE_SEP> c7c6\n":5625,"2krr3/":5626,"3e2 <MOVE_SEP> g":5627,"rnbqkbnr/pppppppp/8/8/4P3/8/PPPP1PPP/RNBQKBNR b KQkq - 0 1 Black <MOVE_SEP> c7c5\n":5628,"rnbqkbnr/pp1ppppp/8/2p5/4P3/8/PPPP1PPP/RNBQKBNR w KQkq - 0 ":5629,"2h5\n":5630,"1PP2PPP/R1B":5631,"6b2\n":5632,"p1bpp1/":5633,"1p2pp/":5634,"1P2R3/":5635,"1K5P/":5636,"p1nb":5637,"6 0 1":5638,"1nP/":5639,"5 <MOVE_SEP> a1a":5640,"NB1KBNR":5641,"1p3N":5642,"1B5p/":5643,"2kb":5644," Black <MOVE_SEP> b7b6\n":5645,"4c7\n":5646,"8/5k2/p":5647,"p1ppbp/":5648,"8/8/8 w - - 5":5649,"3pn3/":5650,"2QK2R w KQ - 0 1":5651,"1BQN":5652,"1r3r1k/":5653,"2P2p/":5654,"2pPP3/":5655,"1pq2pp1/":5656,"3q3P/":5657,"8/8/8 b - - 5":5658,"Q3P":5659,"pB/":5660,"1pp3pp/":5661,"6qp/":5662,"0 Black <MOVE_SEP> e8g8\n":5663,"n3p":5664,"3bP3/":5665,"npp1/":5666,"3e3 <MOVE_SEP> e":5667,"2g5\n":5668,"p2p1n2/":5669,"6k1 b - - ":5670,"8/5k1p/":5671,"2Bp/":5672,"5R1K/":5673,"1r1n":5674,"4P2/P":5675,"1RR3":5676,"1P3PPP/R1B":5677,"Rb":5678,"3Q3p/":5679,"P1P2/":5680,"QKB1R b KQkq - 1 4":5681,"NBQKB1R w KQkq - 0 3 White <MOVE_SEP> c":5682,"5NPP/":5683,"1c1 <MOVE_SEP> g":5684,"8f7 <MOVE_SEP> g":5685,"4 <MOVE_SEP> g1h":5686," White <MOVE_SEP> c1f4\n":5687,"r2qkbnr/":5688,"5c2\n":5689,"8/8/8/6K1/":5690,"8/8/2p":5691,"2QK2R b KQkq - 0 1":5692,"p1p1bppp/":5693,"5RK1 w - - 1 2":5694,"3d4 <MOVE_SEP> b":5695,"1K1B":5696,"8/8/8/4K3/8/":5697,"4R1K1 w - - 1 3":5698,"qB":5699,"7f8 <MOVE_SEP> d":5700,"PPP5/":5701,"5R1p/":5702,"7c6 <MOVE_SEP> e":5703,"6e4 <MOVE_SEP> d":5704,"4b1P1/":5705,"1PQB":5706,"3p1N":5707,"r3qrk1/":5708,"7c3\n":5709,"3np3/":5710,"3 <MOVE_SEP> a8a":5711,"1R/8/":5712,"7h8q\n":5713,"P1pP":5714,"1B2/P":5715,"8h7 <MOVE_SEP> e":5716,"q1b":5717,"PP1PPPPP/RNBQKBNR w KQkq - 0 ":5718,"rnbqk2r/pp3ppp/":5719,"8/8/7r/":5720,"6K1 w - - 0 2":5721,"8/4P":5722,"8 w - - 4 8":5723,"5p1r/":5724,"6f6 <MOVE_SEP> f":5725,"9 14":5726,"nb":5727,"Q5/":5728,"2Q1RK1 b - - 0 1":5729,"3 Black <MOVE_SEP> d7d5\n":5730,"p2k4/":5731,"PP2K":5732,"r3k/":5733,"pp3pbp/":5734,"PPP1NPPP/R":5735,"2b1k":5736,"5p2/7p/":5737,"8/8/R7/":5738,"1b4\n":5739,"1k4/8/":5740,"1d2 <MOVE_SEP> b":5741,"NBQKB1R w KQkq - 1 3":5742,"2n4P/":5743,"3K2p1/":5744,"2b1p/":5745,"5P2/6P1/":5746,"7f3\n":5747,"3R2R":5748,"2/p2p4/":5749,"8/8/6P1/":5750,"8/3n4/":5751,"2b1n":5752,"6f5 <MOVE_SEP> f":5753,"1K3P2/":5754,"p2q4/":5755,"PN/":5756,"1PN/":5757,"7K w - - 0 4":5758,"2P1q":5759,"r1P":5760,"r1b1kbnr/":5761,"7R b - - 0 3":5762,"3KP/":5763,"2/2P4P/":5764,"Q6/":5765,"p4pb1/":5766,"NB1KB1R b KQkq - ":5767,"2p3b1/":5768,"8/PP1PPPPP/RNBQKBNR w KQkq - 0 ":5769,"c2c4 <MOVE_SEP> c7c":5770,"rnbqkbnr/pppppppp/8/8/2P5/8/PP1PPPPP/RNBQKBNR b KQkq - 0 1 Black <MOVE_SEP> c7c5\n":5771,"rnbqkbnr/pp1ppppp/8/2p5/2P5/8/PP1PPPPP/RNBQKBNR w KQkq - 0 ":5772,"3d3 <MOVE_SEP> d":5773,"5f2\n":5774,"1N1B":5775,"4 <MOVE_SEP> a6b":5776,"4R3 b - - 0 4":5777,"2N2P2/PP":5778,"5g6 <MOVE_SEP> c":5779,"r1B":5780,"1r2k3/":5781,"1pr5/":5782,"3B1K2/":5783,"1b5P/":5784,"7d7 <MOVE_SEP> f":5785,"4B3/P":5786,"3h1\n":5787,"4e3 <MOVE_SEP> e":5788,"4r1P1/":5789,"2QK2R b KQ - 0 1":5790,"1P3b":5791,"5K2 w - - 0 5":5792,"1rbqk2r/":5793,"5R2 b - - 0 3":5794,"3P1p/":5795,"1p1/7p/":5796,"4n1P1/":5797,"3pP3/8/":5798,"1K w - - 0 3":5799,"rn1qr1k1/":5800,"b1c1\n":5801,"p1pq":5802,"5c8\n":5803,"4e4 <MOVE_SEP> e":5804,"2N4p/":5805,"b1e1\n":5806,"p5r":5807,"3Pp2p/":5808,"3p4/4P3/":5809,"1r1r4/":5810,"2PP4/5N2/PP2PPPP/R":5811,"6RK/":5812,"4RK1 b - - 0 1":5813,"1b1/P":5814,"3pB3/":5815,"4kr2/":5816,"6d7 <MOVE_SEP> g":5817,"4RK1 b - - 0 2":5818,"3 <MOVE_SEP> h7g":5819,"8/8/8 b - - 0 6":5820,"rnbqkbnr/pppp1ppp/4p3/8/8/":5821,"3B1N1P/":5822,"6 <MOVE_SEP> a1a":5823,"3 <MOVE_SEP> c8f":5824,"r2k4/":5825,"7d7 <MOVE_SEP> e":5826,"3pb3/":5827,"4b3 <MOVE_SEP> f":5828,"2 <MOVE_SEP> h2g":5829,"4p1pP/":5830,"4rr2/":5831,"5R2/p":5832,"3 Black <MOVE_SEP> g7g6\n":5833,"rnbqkbnr/pppppppp/8/8/4P3/8/PPPP1PPP/RNBQKBNR b KQkq - 0 1 Black <MOVE_SEP> c7c6\n":5834,"rnbqkbnr/pp1ppppp/2p5/8/4P3/8/PPPP1PPP/RNBQKBNR w KQkq - 0 ":5835,"2PB1/R":5836,"8/8/8/8 b - - 2":5837,"1pn/":5838,"2p1k/":5839,"6B/":5840,"p2nbppp/":5841,"1f1 <MOVE_SEP> b":5842,"2K2B":5843,"5kr1/":5844,"2p5/p1P":5845,"8b8 <MOVE_SEP> g":5846,"5 <MOVE_SEP> a8a":5847,"8/8/8/8 w - - 2":5848,"5e6 <MOVE_SEP> e":5849,"4PN2/PP1P1PPP/R":5850,"7e7 <MOVE_SEP> d":5851,"N1QR":5852,"8b7 <MOVE_SEP> c":5853,"8b5\n":5854,"1P/R1BQKB1R b KQkq - 0 ":5855,"Q1RK1 w - - ":5856,"P1B/":5857,"2R3K1 w - - 0 3":5858,"2p3K1/":5859,"8c4\n":5860,"PPP2P2/":5861,"4d3 <MOVE_SEP> d":5862,"7P/5P2/":5863,"5e5 <MOVE_SEP> e":5864,"2N5/PPP1PPPP/R1B":5865,"8/4n3/":5866,"2b3P1/":5867,"1b2/8/":5868,"2e3 <MOVE_SEP> f":5869,"2Q1RK1 w - - 0 1":5870,"1r2r":5871,"8 b - - 4 3":5872,"3RQ":5873,"p4r2/":5874,"K1P/":5875,"PP1R":5876,"1c5\n":5877,"r4q":5878,"P2P3P/":5879,"3p1p":5880,"q2p/":5881,"5P1R/":5882,"5Rp1/":5883,"1p1N4/":5884,"2bP":5885,"8n\n":5886," w - - 2 4":5887,"q3p":5888,"1p2q3/":5889,"4rn":5890,"5k/8/":5891,"2p3p/":5892,"1N1PPP/R":5893,"6e6 <MOVE_SEP> e":5894,"N1P5/":5895,"3p2p":5896,"4e3 <MOVE_SEP> g":5897,"1g2 <MOVE_SEP> g":5898,"8h3\n":5899,"pR6/":5900,"2/P1P5/":5901,"2/1PN":5902,"1P2P1/P":5903,"p6K/":5904,"3P1Q":5905,"2r2r1k/":5906,"5K2 b - - 1 4":5907,"8 b - - 1 9":5908,"2N3PP/":5909,"0 Black <MOVE_SEP> h7h6\n":5910,"8/4R":5911,"7f6 <MOVE_SEP> g":5912,"8 b - - 2 9":5913,"8/1K6/8/":5914,"2qppp/":5915,"2f3 <MOVE_SEP> b":5916,"3R4 w - - 0 4":5917,"1PB2/":5918,"1p4r1/":5919,"10 7":5920,"N2P/":5921,"5 <MOVE_SEP> h1h":5922,"3n1p1p/":5923,"p1pp/":5924,"8/6kp/":5925,"8/8/8 b - - 0 7":5926,"6f3\n":5927,"1h4\n":5928,"5d6 <MOVE_SEP> d":5929,"P4NP1/":5930,"8/5p":5931,"2QKB1R b KQkq - 0 1":5932,"Q7 w - - ":5933,"8c7 <MOVE_SEP> c":5934,"4f7\n":5935,"2R1Q":5936,"6d5 <MOVE_SEP> b":5937,"4 <MOVE_SEP> a1a":5938,"2p2K2/":5939,"2r2p2/":5940,"2q2ppp/":5941,"8/8 w - - 0 5":5942,"R2K":5943,"3Bp3/":5944,"8 w - - 8 6":5945,"R3B":5946,"P1P1B":5947,"1c2 <MOVE_SEP> f":5948,"1PP/8/":5949,"8 w - - 8 5":5950,"r5k":5951,"1rb1k":5952,"2b2p/":5953,"1q1n":5954,"2b1r":5955,"2nr/":5956,"NBQKB1R b KQkq - 1 3":5957,"rp/":5958,"rnbqk2r/pp1pbppp/":5959,"6f7 <MOVE_SEP> c":5960,"b1/P":5961,"2d2 <MOVE_SEP> e":5962,"pr6/":5963,"N1P1/":5964,"3K2R w KQ - 1 1":5965,"QKB1R w KQkq - 1 6":5966,"2e2 <MOVE_SEP> f":5967,"3 b - - 0 4":5968,"p4K2/":5969,"3R1K1 w - - 0 2":5970,"8e8 <MOVE_SEP> b":5971,"7c6 <MOVE_SEP> d":5972,"g1f3 <MOVE_SEP> d7d":5973,"rnbqkbnr/pppppppp/8/8/8/5N2/PPPPPPPP/RNBQKB1R b KQkq - 1 1 Black <MOVE_SEP> d7d5\n":5974,"rnbqkbnr/ppp1pppp/8/3p4/8/5N2/PPPPPPPP/RNBQKB1R w KQkq - 0 ":5975,"2/P2N":5976,"3d2 <MOVE_SEP> b":5977,"11 6":5978," b - - 2 1":5979,"5bP1/":5980,"8/1b6/":5981,"8h5\n":5982,"b7 w - - ":5983,"1r3r2/":5984,"4p2k/":5985,"2f1 <MOVE_SEP> c":5986,"4RK1 w - - 0 2":5987,"4rr1k/":5988,"2d2 <MOVE_SEP> f":5989,"4 b - - 0 3":5990,"1b6 w - - ":5991,"2B1K":5992,"2 <MOVE_SEP> a1a":5993,"Q7 b - - ":5994,"P3n":5995,"pn2/8/":5996,"2r1k2r/pp":5997,"PPPN1PPP/R1B":5998," White <MOVE_SEP> e2e4\n":5999,"6c5 <MOVE_SEP> c":6000,"1P1/R1B":6001,"1P4k1/":6002,"2B2K":6003,"1 White <MOVE_SEP> e1g1\n":6004,"3g6\n":6005,"3 White <MOVE_SEP> e2e3\n":6006,"3b4 w - - ":6007,"p3r3/":6008,"3b7\n":6009,"6 <MOVE_SEP> b6b":6010,"R1K":6011,"QK2R w KQkq - 1 1":6012,"2p4n/":6013,"3f2 <MOVE_SEP> c":6014,"1pq5/":6015,"5 <MOVE_SEP> g8h":6016,"2/P7/8/":6017,"6h8\n":6018,"1k6 w - - ":6019,"1r2q":6020,"8n <MOVE_SEP> ":6021,"1k4r1/":6022,"3g4 <MOVE_SEP> h":6023,"8/2b5/":6024,"7k/7p/":6025,"p2pp3/":6026,"8/4B3/":6027,"1NP/":6028,"1/P6P/":6029,"1p2p2/":6030,"PPB1/":6031,"1b2bppp/":6032,"3b2P1/":6033,"3 Black <MOVE_SEP> e7e6\n":6034,"Q5P1/":6035,"ppP":6036,"2f1 <MOVE_SEP> g":6037,"8 w - - 3 9":6038,"7R w - - 0 3":6039," White <MOVE_SEP> b2b3\n":6040,"r1b1kb1r/pp3ppp/":6041,"1Q3R":6042,"7g4\n":6043,"K1 w kq - 0 2":6044,"PP1NB":6045,"d2d4 <MOVE_SEP> c7c":6046,"rnbqkbnr/pppppppp/8/8/3P4/8/PPP1PPPP/RNBQKBNR b KQkq - 0 1 Black <MOVE_SEP> c7c6\n":6047,"rnbqkbnr/pp1ppppp/2p5/8/3P4/8/PPP1PPPP/RNBQKBNR w KQkq - 0 ":6048,"NB1KB1R b KQkq - 0 ":6049,"p5K1/":6050,"3qp3/":6051,"1K2R w KQ - ":6052,"2rB":6053,"QKB1R w KQ - ":6054,"2p3p1/8/":6055,"rnbqk2r/ppp2ppp/":6056,"8 w - - 9 6":6057,"3f3 <MOVE_SEP> f":6058,"3b6\n":6059,"1N6/8/":6060,"2bP/":6061,"2q1n":6062,"1kr":6063,"2b1p1/":6064,"p4pk1/":6065,"8/K":6066,"rn1qkbnr/pp2pppp/":6067,"4pb":6068,"6 <MOVE_SEP> b5c":6069,"1p1p2p/":6070,"4 Black <MOVE_SEP> g7g6\n":6071,"8/4n":6072,"3p2K1/":6073,"4 Black <MOVE_SEP> h7h6\n":6074,"8/1q":6075,"2r1n":6076,"5k2/p7/":6077,"1K2R b KQ - ":6078,"3R1K1 b - - 0 2":6079,"5f6 <MOVE_SEP> f":6080,"2Pp3P/":6081,"8 b - - 7 7":6082,"r1b2k":6083,"1bpp":6084,"K1 w - - 2 3":6085,"ppp2ppp/":6086,"7 <MOVE_SEP> b6b":6087,"b1a1\n":6088,"5K1R b - - ":6089,"3d2 <MOVE_SEP> g":6090,"4 White <MOVE_SEP> g2g3\n":6091," b kq - 2 1":6092,"2r2/p":6093,"8 w - - 7 4":6094,"2B3p1/":6095,"3f4 <MOVE_SEP> f":6096,"7f7 <MOVE_SEP> e":6097,"1g1 <MOVE_SEP> a":6098,"7c6 <MOVE_SEP> f":6099,"5d4 <MOVE_SEP> b":6100,"2Bb":6101,"Q1P5/":6102,"3R1RK1 w - - 0 2":6103,"1Rb":6104,"4Bp2/":6105,"3R1RK1 b - - 0 2":6106,"1P2N3/":6107,"4Q1K1/":6108,"1p1pbp/":6109,"1k1r/pp":6110,"7e8 <MOVE_SEP> f":6111,"2bq1rk1/":6112,"4 <MOVE_SEP> g3h":6113,"1rbk1/":6114,"2K3/8/":6115,"nk":6116,"4N2/1P":6117,"3pQ":6118,"5R2 w - - 0 3":6119,"3B4/P":6120,"1p2pp2/":6121,"1p1B4/":6122," w KQ":6123,"4p2n/":6124,"p5p/":6125,"3 <MOVE_SEP> d8d":6126,"8 w - - 4 3":6127,"2n1P3/":6128,"4P1b1/":6129,"7b8q\n":6130,"3PP3/P1N":6131,"rnbqkb1r/pppppp1p/5np1/8/":6132,"BP1/":6133,"1 Black <MOVE_SEP> c7c5\n":6134,"3P3/1P":6135,"3Q1N":6136,"5BP/":6137,"rnbqkbnr/pppp1ppp/4p3/8/4P3/8/PPPP1PPP/RNBQKBNR w KQkq - 0 ":6138,"rnbqkbnr/pppppppp/8/8/4P3/8/PPPP1PPP/RNBQKBNR b KQkq - 0 1 Black <MOVE_SEP> e7e6\n":6139,"2f5\n":6140,"6b3\n":6141,"2N1Q":6142,"2 w - - 3 3":6143,"Q1RK1 b - - ":6144,"2h1q\n":6145,"2f2 <MOVE_SEP> d":6146," b K - 1 2":6147,"rn1qkbnr/ppp1pppp/8/":6148,"b7 b - - ":6149,"2Nb":6150,"NBQK1NR w KQkq - ":6151,"r4b1r/":6152,"4g5 <MOVE_SEP> h":6153,"P4R":6154,"1 Black <MOVE_SEP> e8g8\n":6155,"2q4P/":6156,"1K6/8/8/":6157,"P4K2/":6158,"3f6\n":6159,"1KB1R w KQkq - 0 1":6160,"2 w - - 0 5":6161,"QKBNR b KQkq - 1 3":6162,"r1bqkbnr/pp1p1ppp/2n1p3/":6163,"6 <MOVE_SEP> b5a":6164,"1P4B1/":6165,"2R5 w - - 0 3":6166,"8d8 <MOVE_SEP> a":6167,"NBQKBNR w KQkq - 1 4":6168,"1p2K3/":6169,"6c3\n":6170,"2P1r":6171,"1bp1p/":6172,"qn1ppp/":6173,"QK2R w KQ - 0 1":6174,"3 <MOVE_SEP> a2b":6175,"2QKBNR w KQkq - ":6176,"7f6 <MOVE_SEP> f":6177,"p4Q":6178,"5 <MOVE_SEP> g4h":6179,"5 <MOVE_SEP> g6h":6180,"2N2P2/":6181,"1f2 <MOVE_SEP> g":6182,"2k5 w - - ":6183,"3rkb1r/":6184,"8 White <MOVE_SEP> e1g1\n":6185,"3K2R b KQ - 1 1":6186,"1p1R4/":6187,"4c5 <MOVE_SEP> c":6188,"1p3K2/":6189,"6d7 <MOVE_SEP> d":6190,"2rr":6191,"6 <MOVE_SEP> h2g":6192,"4PB1/":6193,"5KP/":6194,"1P1Q4/":6195,"3PR":6196,"1g1 <MOVE_SEP> h":6197,"7 <MOVE_SEP> a8a":6198,"2Q4p/":6199,"6g7 <MOVE_SEP> c":6200,"r1bqkb1r/pp2pppp/":6201,"3bk1/":6202,"3r1P2/":6203,"1f2 <MOVE_SEP> f":6204,"1p3P/":6205,"3p1ppp/":6206,"5K1 b - - ":6207,"3p2k1/":6208,"4 <MOVE_SEP> g5h":6209,"1K1RR":6210,"6 <MOVE_SEP> b7a":6211,"r1bqkb1r/pp1ppppp/":6212,"2k3p1/":6213,"1p2p3/8/":6214,"6K1 w - - 1 5":6215,"r4n":6216,"2/1PP2PPP/R1B":6217,"8d3\n":6218,"5R2 b - - 0 4":6219,"4RK1 w - - 0 1":6220,"8c7 <MOVE_SEP> g":6221,"5 White <MOVE_SEP> h2h3\n":6222,"7d8 <MOVE_SEP> f":6223,"pp2pn2/":6224,"1RP":6225,"1d7\n":6226,"R2N":6227,"2b4r/":6228,"6e5 <MOVE_SEP> b":6229,"P1N/":6230,"4R3 w - - 0 4":6231,"1pp/P":6232,"3PB3/":6233,"1b6 b - - ":6234,"6d6 <MOVE_SEP> d":6235,"6K1 b - - 1 5":6236,"NB1KB1R w KQkq - ":6237,"7g7 <MOVE_SEP> g":6238,"1BPN":6239,"11 5":6240,"1b2 <MOVE_SEP> c":6241,"5 Black <MOVE_SEP> h7h6\n":6242,"NPP":6243,"R5K1 b - - ":6244,"rnbqkb1r/pp1ppppp/5n2/2p5/2P5/":6245,"7f7 <MOVE_SEP> d":6246,"3N1PP1/":6247,"p1p1q":6248,"1b1p4/":6249,"4q2P/":6250,"7c7 <MOVE_SEP> f":6251,"3c6\n":6252,"p1n/":6253,"1PQ1PP":6254,"7c7 <MOVE_SEP> c":6255," b K - 2 1":6256,"q2n":6257,"1BP5/":6258,"5rP1/":6259,"8a3\n":6260,"b3p3/":6261,"2c2 <MOVE_SEP> c":6262,"r1bqkb1r/pp3ppp/2n1pn2/":6263,"3d5 <MOVE_SEP> f":6264,"B1b":6265,"2/PP2B":6266,"5B1p/":6267,"3KB1R b KQ - 0 1":6268,"4p1n1/":6269,"bpn2/":6270,"2P2N2/":6271,"2P3k1/":6272,"p1bp/":6273,"6PP/R":6274,"5r2/6k1/":6275,"2p1b1p1/":6276,"2f6\n":6277,"1PN5/":6278,"K1 w - - 4 2":6279,"3g2 <MOVE_SEP> c":6280,"8f4\n":6281,"nrk1/":6282,"pb1q":6283,"1ppP4/":6284,"3e2 <MOVE_SEP> e":6285,"3 <MOVE_SEP> a1a":6286,"3/2P2N":6287,"1K b - - 1 2":6288,"8/p3k":6289,"P1PPP/R1B":6290,"1pb2/":6291,"q6p/":6292,"6P1/PP1PPP1P/RNBQKBNR b KQkq - 0 ":6293,"NBQKB1R w KQkq - 2 2":6294,"5N2/PPPPPPPP/RNBQKB1R w KQkq - 2 2":6295,"g1f3 <MOVE_SEP> g8f":6296,"rnbqkbnr/pppppppp/8/8/8/5N2/PPPPPPPP/RNBQKB1R b KQkq - 1 1 Black <MOVE_SEP> g8f6\n":6297,"rnbqkb1r/pppppppp/5n2/8/8/5N2/PPPPPPPP/RNBQKB1R w KQkq - 2 2":6298,"2R5 b - - 0 3":6299,"2p5/P1P":6300,"bp2/p":6301,"3b4 b - - ":6302,"rnbqkbnr/pp1ppppp/8/2p5/8/":6303,"p5/8/":6304,"PP3P1P/R1B":6305,"7f4\n":6306,"1P2Q3/":6307,"7a4\n":6308,"2/P2P4/":6309,"6 Black <MOVE_SEP> h7h6\n":6310,"p3b2p/":6311,"rnbqk2r/pp2ppbp/":6312,"4f3 <MOVE_SEP> f":6313,"1P/PPQ":6314,"rnbqk1nr/pp2bppp/":6315,"1B3R":6316,"1n2/8/":6317,"3kp1/":6318,"8/2q":6319,"1 Black <MOVE_SEP> h7h6\n":6320,"1nk1/":6321,"3d2 <MOVE_SEP> d":6322,"2Q1K1R":6323,"8 b - - 5 8":6324,"6 <MOVE_SEP> a8a":6325,"1K5p/":6326,"2 b - - 3 3":6327,"1k6 b - - ":6328,"2nP4/":6329,"0 White <MOVE_SEP> h2h3\n":6330,"B5/":6331,"8/3B4/":6332,"8 Black <MOVE_SEP> e8g8\n":6333,"8/p5k1/":6334," w K - 2 1":6335,"3PP3/8/PPP2PPP/RNBQKBNR w KQkq - 0 ":6336,"8 b - - 7 4":6337,"1qp5/":6338,"5g4 <MOVE_SEP> h":6339,"2b1k2r/":6340,"r6r/pp":6341,"2d1 <MOVE_SEP> f":6342,"6 <MOVE_SEP> a7b":6343,"2b1q\n":6344,"2B1Q":6345,"PP1K":6346,"1b3p1p/":6347,"7f8 <MOVE_SEP> c":6348,"2Q1K":6349,"p2p1p2/":6350,"2f1 <MOVE_SEP> f":6351,"1KB1R b KQkq - 0 1":6352,"3d5 <MOVE_SEP> c":6353,"P4B":6354,"8 w - - 9 5":6355,"3 <MOVE_SEP> b2a":6356,"4P2/1P":6357,"1bp5/":6358,"1a6\n":6359,"2 <MOVE_SEP> h1h":6360,"P1/7P/":6361,"2c3 <MOVE_SEP> f":6362,"1R2KB1R":6363,"4p1Pp/":6364,"3nbpp1/":6365,"QK2R b KQ - 0 1":6366,"3RR1K1 b - - ":6367,"7e8 <MOVE_SEP> d":6368,"11 7":6369,"3k4 w - - ":6370,"10 4":6371,"4b7\n":6372,"8q <MOVE_SEP> g":6373,"3b1p1p/":6374,"8e7 <MOVE_SEP> b":6375,"1N1p4/":6376,"p2pp/":6377,"2n1pn2/8/":6378,"8f8 <MOVE_SEP> b":6379,"2e2 <MOVE_SEP> d":6380,"5RK1 b - - 1 2":6381,"7N/8/":6382,"4 White <MOVE_SEP> b1c3\n":6383,"4rp2/":6384,"3B1P1/":6385,"5N2/1P":6386,"4n3/P":6387,"r3kbnr/":6388,"r3p3/":6389,"5e6 <MOVE_SEP> g":6390,"1pp2p2/":6391,"N2/1P":6392,"3p1B2/":6393,"8/8/1K6/8/":6394,"r4rk1/pb":6395,"4PN2/PPPP1PPP/R":6396,"1p3Q":6397,"4 w - - 0 2":6398,"1 w - - 0 4":6399,"2B1P3/8/":6400,"8/8 w - - 1 6":6401,"5NP1/PP2PPBP/R":6402,"7c5 <MOVE_SEP> d":6403,"1rp1/":6404,"5 <MOVE_SEP> g7h":6405,"2N1P":6406,"4d3 <MOVE_SEP> g":6407,"4 Black <MOVE_SEP> g8f6\n":6408,"4f4 <MOVE_SEP> f":6409,"4g7\n":6410,"PB1N":6411,"b3/8/":6412,"3 <MOVE_SEP> h1h":6413,"4f5 <MOVE_SEP> b":6414,"2/P1N5/":6415,"Q6P/":6416,"8/2n":6417,"8c8 <MOVE_SEP> a":6418,"1p2b1p1/":6419,"8/3Q4/":6420,"3R2K1 w - - 1 3":6421,"2NBPN":6422,"1PB5/":6423,"R4P2/":6424,"5c4 <MOVE_SEP> c":6425,"2NP3P/":6426,"8/8/8/4k":6427,"2 Black <MOVE_SEP> c7c5\n":6428,"4BP/":6429,"1pB5/":6430,"1n1P4/":6431,"rnbqkbnr/pppp1ppp/4p3/8/3P4/8/PPP1PPPP/RNBQKBNR w KQkq - 0 ":6432,"d2d4 <MOVE_SEP> e7e":6433,"rnbqkbnr/pppppppp/8/8/3P4/8/PPP1PPPP/RNBQKBNR b KQkq - 0 1 Black <MOVE_SEP> e7e6\n":6434,"6 <MOVE_SEP> g1f3 <MOVE_SEP> d7d":6435,"8/1B6/":6436,"5e4 <MOVE_SEP> b":6437,"2P2N1P/":6438,"8/8/8/4k3/8/":6439,"2e3 <MOVE_SEP> e":6440,"2np/":6441,"2b1r1k1/":6442,"2Q3R":6443,"n3/P":6444,"4PQ":6445,"1qr":6446,"3 Black <MOVE_SEP> h7h6\n":6447,"8q <MOVE_SEP> f":6448,"4d4 <MOVE_SEP> d":6449,"4a1\n":6450,"3RN":6451,"4b3 w - - ":6452,"8/8/8/1K6/":6453,"2R2K1 b - - 0 2":6454,"8c3\n":6455,"2b5 w - - ":6456,"2R3K1 b - - 0 2":6457,"PPN/":6458,"7d8 <MOVE_SEP> e":6459,"1K b - - 0 3":6460,"PPK/":6461,"pp1P":6462,"1R3P":6463,"2 Black <MOVE_SEP> h7h6\n":6464,"q1r":6465,"1P/PP1N":6466," b - - 2 4":6467,"p1n4p/":6468,"4P1Pp/":6469,"4 <MOVE_SEP> g2h":6470,"1 White <MOVE_SEP> h2h3\n":6471," Kq - ":6472,"2f2 <MOVE_SEP> g":6473,"4 White <MOVE_SEP> h2h3\n":6474,"3P2b1/":6475,"8 b - - 8 7":6476,"p2pbppp/":6477,"8a4\n":6478,"1d2 <MOVE_SEP> g":6479,"4NR":6480,"6g5 <MOVE_SEP> h":6481,"8/5B2/":6482,"1Q3P":6483,"2pP3p/":6484,"b1N":6485,"5b1P/":6486,"Q1K1R":6487,"1P3R2/":6488,"8/p1p":6489,"2rk/":6490,"1R3p2/":6491,"Q2R":6492," b - - 4 2":6493,"2b1p":6494,"3B2K1/":6495,"1pp3/":6496,"5NP1/PP1PPPBP/R":6497,"1b2p":6498,"1PP5/P":6499,"6 <MOVE_SEP> h1h":6500,"5b2\n":6501,"6e7 <MOVE_SEP> e":6502,"8/8/1P6/":6503,"1q1r":6504,"2c2 <MOVE_SEP> f":6505,"4f1\n":6506,"p1/6P1/":6507,"r1bqk2r/pp3ppp/":6508,"9 Black <MOVE_SEP> h7h6\n":6509,"4b1\n":6510,"2p4r/":6511,"4bP2/":6512,"7f8 <MOVE_SEP> g":6513,"5f5 <MOVE_SEP> f":6514,"1c6\n":6515,"5d5 <MOVE_SEP> d":6516,"5k2 w - - ":6517,"6d7 <MOVE_SEP> b":6518,"4P1k1/":6519,"8/p6p/":6520,"8 b - - 6 8":6521,"3c4 <MOVE_SEP> b":6522,"2rqkb1r/":6523,"1q5/":6524,"bn/":6525,"1p3P1P/":6526,"5 <MOVE_SEP> a3b":6527,"3 <MOVE_SEP> b3b":6528,"1Pp1P":6529,"2k2p2/":6530,"4NK2/":6531,"2k5 b - - ":6532,"4NB":6533,"2NB1N2/PP":6534,"5f6 <MOVE_SEP> g":6535,"2c5\n":6536,"4K1p1/":6537,"2N3P1/PP1PPP1P/R1B":6538,"2Pp1P":6539,"8/8/8/2K":6540,"7e7 <MOVE_SEP> c":6541,"7d7 <MOVE_SEP> c":6542,"2/P4PPP/R":6543,"6 White <MOVE_SEP> h2h3\n":6544,"2k4/8/":6545,"1b2P3/":6546,"K6/":6547,"p4P/":6548,"2P1Q3/":6549,"3k4 b - - ":6550,"1R b - - 0 2":6551,"2g2 <MOVE_SEP> g":6552,"3P/6P1/":6553,"3b1P2/":6554,"1r3p2/":6555,"1a5\n":6556,"4Pb":6557,"5B2/P":6558,"2d2 <MOVE_SEP> c":6559,"PP1N1PPP/R1B":6560," w kq - 2 1":6561,"3/2P4P/":6562,"8/8/8/1K":6563,"Q2B":6564,"1p2p3/1P":6565,"P2R4/":6566,"3f4 <MOVE_SEP> b":6567,"1P/P7/":6568,"8/8/8/k":6569,"7e6 <MOVE_SEP> e":6570,"1PN3P1/P":6571,"1d1 <MOVE_SEP> a":6572,"2p1pp2/":6573,"1np1p":6574,"b2r":6575,"4p1K1/":6576,"1PR5/":6577,"4 b - - 0 2":6578,"KP1/":6579,"PP1P/R1B":6580,"2NP/":6581,"1bbppp/":6582,"5d1\n":6583,"8 <MOVE_SEP> h7h":6584,"B1P1/":6585,"1b4P1/":6586,"1n <MOVE_SEP> ":6587,"7P/5K2/":6588,"pP5/":6589,"1 <MOVE_SEP> h3h":6590,"8/2B5/":6591,"1K4P1/":6592,"p3n3/":6593,"p1P3/":6594,"5pPp/":6595,"9 White <MOVE_SEP> e1g1\n":6596,"3N4/P":6597,"7f8 <MOVE_SEP> f":6598,"8/8/8/5k2/8/":6599,"2R2K1 w - - 0 2":6600,"2p2p1/":6601,"4Pp":6602,"2f2 <MOVE_SEP> c":6603,"3h6\n":6604,"1k5P/":6605,"1P3NP1/PB":6606,"6c5 <MOVE_SEP> g":6607,"PP2BPPP/R1B":6608,"7f7 <MOVE_SEP> g":6609," w KQkq - 3 1":6610,"4K2/8/":6611,"7c4\n":6612,"pP1P":6613,"1K1NR b KQkq - ":6614,"8/8 w - - 1 5":6615,"1P3PB1/":6616,"2N1R":6617,"3K/8/":6618,"1pq1bppp/":6619,"P1R5/":6620,"1r1qr1k1/":6621,"3k3/8/":6622,"rnbqkbnr/pp1p1ppp/2p1p3/8/":6623,"2N1p3/":6624,"4Pp1p/":6625,"rn2kbnr/pp":6626,"8a8 <MOVE_SEP> d":6627,"2P3B1/":6628,"4P3/5N2/PPPP1PPP/RNBQKB1R b KQkq - 1 2":6629,"8/4Q3/":6630,"2p3N1/":6631,"n1r/":6632,"p4b2/":6633,"2R1N":6634,"1p1p3/":6635,"3r1k1r/":6636,"3pp2/":6637,"2P1NP1/":6638,"3P1B2/2P":6639,"8a8 <MOVE_SEP> f":6640," b - - 0 5":6641,"RR":6642,"1Q6 w - - ":6643,"1q2p2p/":6644,"5b1k/":6645,"2R2p2/":6646,"6g3\n":6647,"/P5P1/":6648,"p3b1p1/":6649,"1Q6 b - - ":6650,"3P4/2P5/":6651,"1Pb/":6652,"8 b - - 10 6":6653," w - - 4 2":6654,"p1p1p/":6655,"4b3 b - - ":6656,"6c5 <MOVE_SEP> b":6657,"p3P2p/":6658,"r2p/":6659,"QKB1R w KQkq - 0 1":6660,"r2/8/":6661,"8/8/8/3K4/8/":6662,"5K2 b - - 0 5":6663,"2p1B3/":6664,"6d4 <MOVE_SEP> c":6665,"6P1/7K/":6666,"2d1 <MOVE_SEP> e":6667,"1K1R1B":6668,"3PP3/8/":6669,"rn1qkb1r/ppp1pppp/5n2/":6670,"3KB1R w KQ - 0 1":6671,"1R1QKB1R":6672,"2p3/P":6673,"3b1k2/":6674,"5PpP/":6675,"qp1ppp/":6676,"rnbqkbnr/pppp1ppp/8/4p3/2P5/8/PP1PPPPP/RNBQKBNR w KQkq - 0 ":6677,"rnbqkbnr/pppppppp/8/8/2P5/8/PP1PPPPP/RNBQKBNR b KQkq - 0 1 Black <MOVE_SEP> e7e5\n":6678,"QR1K1 b kq - ":6679,"1p1pP/":6680,"7 Black <MOVE_SEP> h7h6\n":6681,"NB1KB1R w KQkq - 0 ":6682,"7e8 <MOVE_SEP> g":6683,"2b5 b - - ":6684,"8/8/8 w - - 1 7":6685,"2p1bp/":6686,"N7/8/":6687,"rn1qkbnr/":6688,"p1pp1/":6689,"N1QKBNR b KQkq - 0 ":6690,"1P/P4P2/":6691,"1pR5/":6692,"N2P":6693,"2K3p1/":6694,"rnbq1rk1/pp2bppp/":6695,"8/4r1k1/":6696,"2c2 <MOVE_SEP> e":6697,"qP":6698,"1K w - - 1 2":6699,"5c1\n":6700,"8 <MOVE_SEP> b1c":6701,"1q <MOVE_SEP> g":6702,"1c2 <MOVE_SEP> d":6703,"1 <MOVE_SEP> h2h":6704,"8h7 <MOVE_SEP> d":6705,"1B1/P":6706,"2Pk":6707,"8/3K":6708,"2pK":6709,"2 White <MOVE_SEP> e1g1\n":6710,"8 w - - 7 8":6711,"2 Black <MOVE_SEP> e8g8\n":6712,"1n6/8/":6713,"PPQ1B":6714,"qp1/":6715,"pb6/":6716,"4PPP/R":6717,"2kr2r1/":6718,"1B2PP":6719,"p5r1/":6720,"2Rb":6721,"1PQ5/":6722,"7P/8/8/":6723,"Rn":6724,"3c3 <MOVE_SEP> c":6725,"rnbqkbnr/pp2pppp/8/":6726,"3PB/":6727,"2Np4/":6728,"2 b - - 3 2":6729,"4 <MOVE_SEP> c5d":6730,"3P1b":6731,"2K1 w - - 0 3":6732,"3P2k1/":6733," White <MOVE_SEP> d1c2\n":6734,"5 <MOVE_SEP> c1f":6735,"6Pk/":6736,"2p1q3/":6737,"P1P1N":6738,"1Q2P3/":6739,"6c7 <MOVE_SEP> g":6740,"4 <MOVE_SEP> h1h":6741,"2/P6p/":6742,"n3p3/":6743,"3P1N1P/":6744,"1q <MOVE_SEP> f":6745,"Bb":6746,"5NP1/PPPPPP1P/RNBQKB1R b KQkq - 0 ":6747,"6pb/":6748,"N5P1/":6749,"5K1R w - - ":6750,"4b1 <MOVE_SEP> ":6751,"p2N4/":6752,"2n2/8/":6753,"2Q1PP":6754,"8/4Q":6755,"4B1PP/":6756,"2p1P2p/":6757,"2/PP6/":6758,"1PBPPP/R1B":6759,"5K2 w - - 1":6760,"7f7 <MOVE_SEP> c":6761,"6e4 <MOVE_SEP> f":6762,"ppk/":6763,"3K2/8/":6764,"5k2 b - - ":6765,"pp1p4/":6766,"7K b - - 0 3":6767,"p3N3/":6768,"6 <MOVE_SEP> d2d4 <MOVE_SEP> d7d":6769,"1K1 w - - 2 1":6770,"NBQK1NR w KQkq - 0 ":6771,"rnb1kb1r/pp3ppp/":6772,"1B1P3/":6773,"p1p2pp1/":6774,"q3p3/":6775," b - ":6776,"2p1b2p/":6777,"2qr":6778,"2e2 <MOVE_SEP> c":6779,"5k2/8/8/8/":6780,"r1bqkbnr/ppp2ppp/":6781,"pkp/":6782,"4bn2/":6783,"3r2r1/":6784,"r1bq2k1/":6785,"8/8/3b4/":6786,"4 <MOVE_SEP> c6b":6787,"4 Black <MOVE_SEP> f8e7\n":6788,"QKB1R w KQkq - 1 7":6789,"r1bq1rk1/pp2bppp/":6790,"rnbqk2r/ppppbppp/":6791,"8d2\n":6792,"B5P1/":6793,"p3q3/":6794,"7c7 <MOVE_SEP> e":6795,"QKBNR w KQkq - 1 4":6796,"8 w - - 9 7":6797,"pb2/":6798,"4k3/7p/":6799,"6 White <MOVE_SEP> e1g1\n":6800,"2P3/8/":6801,"3kr/":6802," Black <MOVE_SEP> e7e5\n":6803,"5K2 w - - 1 4":6804,"8/8/4b3/":6805,"1PNP1/":6806,"2 Black <MOVE_SEP> b8c6\n":6807,"8/8/7R/":6808,"Pk":6809,"q5/":6810,"0 15":6811,"4qpp1/":6812,"rnbqkbnr/pppp1ppp/4p3/8/2P5/8/PP1PPPPP/RNBQKBNR w KQkq - 0 ":6813,"rnbqkbnr/pppppppp/8/8/2P5/8/PP1PPPPP/RNBQKBNR b KQkq - 0 1 Black <MOVE_SEP> e7e6\n":6814,"PP1/P":6815,"5N1p/":6816,"PPQN":6817,"6N/":6818,"7g8q\n":6819,"K1 w - - 0 4":6820,"3B1p2/":6821,"4c3 <MOVE_SEP> c":6822,"2b1q":6823,"3e2 <MOVE_SEP> b":6824," w - - 2 1":6825,"8a8 <MOVE_SEP> e":6826,"1P5R/":6827,"4R1K1 b - - 1 3":6828,"1b1/8/":6829,"3P1n":6830,"3k2P1/":6831,"1R1R2K1 b - - ":6832,"2N1B1P1/":6833,"P1pP4/":6834,"1pp2p1p/":6835,"1b2p3/":6836,"8 w - - 2 9":6837,"2R5 b - - 0 4":6838,"1P1N/":6839,"rn2r1k1/":6840,"5KB1/":6841,"8/8/8/5K2/8/":6842,"4p3/3pP3/":6843,"1 15":6844,"3n4/P":6845,"PP4PP/":6846,"K1B":6847,"8q <MOVE_SEP> e":6848,"pppb":6849,"8 <MOVE_SEP> h6h":6850,"r3P":6851,"4np1/":6852,"r1bq1r1k/":6853,"2PB/":6854,"1bPP4/":6855,"8a8 <MOVE_SEP> c":6856,"2NQ4/":6857,"8/4N":6858,"P/R1B2R":6859,"2 <MOVE_SEP> a8a":6860,"g1f3 <MOVE_SEP> e7e":6861,"rnbqkbnr/pppppppp/8/8/8/5N2/PPPPPPPP/RNBQKB1R b KQkq - 1 1 Black <MOVE_SEP> e7e6\n":6862,"rnbqkbnr/pppp1ppp/4p3/8/8/5N2/PPPPPPPP/RNBQKB1R w KQkq - 0 ":6863,"p1r/":6864,"1RBQ1R":6865,"P3B3/":6866,"2e1 <MOVE_SEP> f":6867,"5a8\n":6868,"8 b - - 9 6":6869,"3R4 b - - 1 3":6870,"1k2r":6871,"p1q5/":6872,"1k5p/":6873,"2/p6p/":6874,"7e7 <MOVE_SEP> g":6875,"rr6/":6876,"2nk":6877,"2d3 <MOVE_SEP> d":6878,"5 Black <MOVE_SEP> g7g6\n":6879,"5PB1/R":6880,"8/8 w - - 0 6":6881,"8/1N":6882,"PPB/":6883,"1p2b1pp/":6884,"5f8\n":6885,"3 15":6886,"6K1 b - - 3 3":6887,"6k1/8/p":6888,"4g5 <MOVE_SEP> b":6889,"3K3/8/":6890,"p1pPp":6891,"r3kr2/":6892,"4r3/P":6893,"4BR":6894,"4Pn":6895,"2a5\n":6896,"2pPn":6897,"1rp/":6898,"8/6K1/8/":6899,"4p2/P":6900,"5g2\n":6901,"3 <MOVE_SEP> f8d":6902,"2QK2R b KQ - ":6903,"1pkp/":6904,"p2B4/":6905,"1n\n":6906,"3KB1R b KQ - ":6907,"4 White <MOVE_SEP> g1f3\n":6908,"4Pn2/":6909,"2B1P/":6910,"1K1 b - - 2 1":6911,"8/8/8 w - - 6":6912,"p2K4/":6913,"8/5rk1/":6914,"4pP":6915,"1e1 <MOVE_SEP> a":6916,"4d8\n":6917,"3g4 <MOVE_SEP> b":6918,"1P1P2P1/":6919,"rqb":6920,"6k1/p7/":6921,"2 w - - 2 4":6922,"4 White <MOVE_SEP> e2e3\n":6923,"5 White <MOVE_SEP> g2g3\n":6924,"1npp1p/":6925,"2p2k2/":6926,"9 Black <MOVE_SEP> e8g8\n":6927,"N3/3P4/":6928,"8/8/8/6p1/":6929,"rnbqkbnr/pp1ppp1p/6p1/":6930,"1r2r3/":6931,"3P1B2/8/":6932,"1q1p/":6933,"pnbppp/":6934,"2Ppp":6935,"8 Black <MOVE_SEP> h7h6\n":6936,"p1q2ppp/":6937,"2pp4/3P1B2/":6938,"3pp1p1/":6939,"3 White <MOVE_SEP> h2h3\n":6940,"2P4R/":6941,"1r2b":6942,"1b1 <MOVE_SEP> a":6943,"4 <MOVE_SEP> d8d":6944,"2P2PP1/R":6945,"3/1P5P/":6946,"7e6 <MOVE_SEP> g":6947,"2d3 <MOVE_SEP> g":6948,"1p2b2p/":6949,"1R w - - 0 2":6950,"2QKBNR w KQkq - 0 ":6951,"2p1k3/":6952,"pPp/":6953,"6k1/5p1p/":6954,"3 Black <MOVE_SEP> b8c6\n":6955,"rnbqk1nr/pppp1ppp/":6956,"1BQ1B":6957,"1p6/p1p":6958,"p2PP":6959,"3B2k1/":6960,"2pp4/P":6961,"8g7 <MOVE_SEP> b":6962," b k - 1 2":6963,"1b1pp1/":6964,"R3P":6965,"5f4 <MOVE_SEP> b":6966,"6c6 <MOVE_SEP> c":6967,"1Q3P2/":6968,"5K2 b - - 1 3":6969,"pp1k":6970,"3pR":6971," White <MOVE_SEP> b1a3\n":6972,"3R1p2/":6973," White <MOVE_SEP> b1a2\n":6974,"pP5P/":6975,"8 w - - 8 7":6976,"2 15":6977,"5b4 <MOVE_SEP> g":6978,"3PP1P1/":6979,"B2R":6980,"/P4P2/":6981,"q5p1/":6982,"1RB1R":6983,"6pr/":6984,"2B1K2R":6985,"8/4kp2/":6986,"3a6\n":6987,"4P3/2P5/":6988,"2np3p/":6989,"1n2p3/":6990,"8/8/8 w - - 1 6":6991,"1R b - - 1 2":6992,"2Q5 w - - ":6993,"P1NP1/":6994,"6f7 <MOVE_SEP> f":6995,"1p1b3p/":6996,"2 Black <MOVE_SEP> b7b6\n":6997,"8/8/8 b - - 6":6998,"7e8 <MOVE_SEP> c":6999,"3B1K":7000,"2p2P/":7001,"1pp1/8/":7002,"P1Pp/":7003,"3nq":7004,"2QP/":7005," White <MOVE_SEP> c2c3\n":7006,"7 White <MOVE_SEP> h2h3\n":7007,"1N1R":7008,"4b5 <MOVE_SEP> g":7009,"2b7\n":7010,"1P/P3B":7011,"2P1P2/":7012,"1P2k":7013,"2Np/":7014,"2N2NP1/PP1PPP1P/R1B":7015,"pp1pp1/":7016,"8/8/2r5/":7017,"4P1K/":7018,"P1N1/":7019,"5PPP/R1B":7020,"2Q5 b - - ":7021,"3p1P/":7022,"7 White <MOVE_SEP> e1g1\n":7023,"1p5R/":7024,"6g4 <MOVE_SEP> e":7025,"rnbqk1nr/ppp1bppp/":7026,"1B2p3/":7027,"3h4 <MOVE_SEP> f":7028,"6K1 w - - 3 4":7029,"3KB1R w KQ - ":7030,"0 White <MOVE_SEP> a2a3\n":7031,"r1b2r2/":7032,"2p5/2Pp4/":7033,"7d8 <MOVE_SEP> c":7034,"P3r":7035,"6f5 <MOVE_SEP> b":7036,"P5PP/":7037,"pp2bpp1/":7038,"2bP4/":7039,"3 White <MOVE_SEP> f2f3\n":7040,"1B1P4/":7041,"5N2/PP2PPPP/RNBQKB1R w KQkq - 0 ":7042,"1R4K1/":7043,"2K3k1/":7044,"1b1N":7045,"N4N":7046,"r1q1k":7047,"8/8 b - - 2":7048,"2k2r2/":7049,"8q <MOVE_SEP> d":7050,"r2N":7051,"4BPPP/":7052,"8/8 w - - 2":7053,"3P1PP1/":7054,"2d2 <MOVE_SEP> g":7055,"5c6 <MOVE_SEP> c":7056,"2e1 <MOVE_SEP> d":7057,"1f2 <MOVE_SEP> b":7058,"4c3 <MOVE_SEP> g":7059,"4k3 w - - ":7060,"6 Black <MOVE_SEP> e8g8\n":7061,"2P3p/":7062,"5 <MOVE_SEP> c3b":7063,"3 w - - 2 3":7064,"1PP1/P":7065,"1p3r2/":7066,"3QN":7067,"8/8/6K1/8/":7068,"1kr/":7069,"7d5 <MOVE_SEP> e":7070,"1pPp/":7071,"1pp1/P":7072,"5PP1/8/":7073,"3/P1P5/":7074,"2e1 <MOVE_SEP> g":7075,"1r2n":7076,"1P1BB":7077,"4P1pP/":7078,"3p1b2/3P1B2/":7079,"6e2\n":7080,"PP1N1PPP/R":7081,"1n4p1/":7082,"1p1Pp3/":7083," b kq - 0 2":7084,"4B1k1/":7085,"3 <MOVE_SEP> a6b":7086,"1 b kq - ":7087,"5d6 <MOVE_SEP> g":7088,"4 15":7089,"3c4 <MOVE_SEP> g":7090,"1P/P1Q":7091,"1n1b":7092," White <MOVE_SEP> b1c2\n":7093,"1ppP":7094,"2K1 w - - 1 2":7095,"Q2P4/":7096,"1c7\n":7097,"5a2\n":7098,"3r4/P":7099,"4BP1P/":7100,"7d7 <MOVE_SEP> g":7101,"r3k2r/pb":7102,"7e5 <MOVE_SEP> f":7103,"p1b/":7104,"r1b2k1r/":7105,"5p1K/":7106,"3B1PP1/":7107,"5b8\n":7108,"p7/P1P":7109,"10 8":7110,"2d4 <MOVE_SEP> e":7111,"1P3r":7112,"1n1q":7113,"pk6/":7114,"2P/P5P1/":7115,"5N2/PP1P1PPP/R":7116,"1P3N2/":7117,"6K1 w - - 3 3":7118,"1p1nbpp1/":7119,"2PP4/8/PP2PPPP/RNBQKBNR w KQkq - 0 ":7120,"1p1bp/":7121,"8b8 <MOVE_SEP> a":7122,"3B2P/":7123,"6d2\n":7124,"p2R4/":7125,"2R3K1 w - - 0 2":7126,"8/8/3r4/":7127,"7c7 <MOVE_SEP> d":7128,"3q1pp1/":7129,"2/PPP1Q":7130,"3QP/":7131,"1KBNR b KQkq - ":7132,"3B4/PPP2PPP/R":7133,"1QP/":7134,"7 <MOVE_SEP> a1a":7135,"2p1p3/4P3/":7136,"R5R":7137,"5K2/5P2/":7138,"6P1/PP2PP1P/R":7139,"8/6B1/":7140," Black <MOVE_SEP> b7b5\n":7141,"4k3/8/8/8/":7142,"3pP1p1/":7143,"3Q2K1/":7144,"1p3b2/":7145,"1b3P2/":7146,"8 b - - 9 5":7147,"6pK/":7148,"n5p1/":7149,"1B1/8/":7150,"r1bqkbnr/pp3ppp/2n1p3/":7151,"K5/":7152,"2P/P7/":7153,"3Q2p1/":7154,"6g5 <MOVE_SEP> b":7155,"1B3PP1/":7156,"2e3 <MOVE_SEP> g":7157,"3P3N/":7158,"5P1k/":7159,"2pp3/":7160,"2 <MOVE_SEP> h7g":7161,"5 Black <MOVE_SEP> e8g8\n":7162,"1n2P3/":7163,"3q2P1/":7164,"pp2k":7165,"BPP":7166,"2Q1P3/":7167,"1p2B3/":7168,"3p1k2/":7169,"3 White <MOVE_SEP> e1g1\n":7170," Black <MOVE_SEP> a7a8\n":7171,"2NN":7172,"p3pn2/8/":7173,"1b7\n":7174,"r1/8/":7175,"p1p4/":7176,"2pp1n1p/":7177,"7 <MOVE_SEP> b1d":7178,"1R4K1 b - - 0 3":7179,"NBQKBNR b KQkq - 0 1 Black <MOVE_SEP> g8f6\n":7180,"2P5/8/PP1PPPPP/RNBQKBNR w KQkq - 1 2":7181," b k - 0 1":7182,"rnbqkb1r/pppppppp/5n2/8/2P5/8/PP1PPPPP/RNBQKBNR w KQkq - 1 2":7183,"c2c4 <MOVE_SEP> g8f":7184,"rnbqkbnr/pppppppp/8/8/2P5/8/PP1PPPPP/RNBQKBNR b KQkq - 0 1 Black <MOVE_SEP> g8f6\n":7185," Black <MOVE_SEP> d8c7\n":7186,"p3K3/":7187,"7f5 <MOVE_SEP> e":7188,"5R2 w - - 0 4":7189," w - - 4 3":7190,"6 Black <MOVE_SEP> g7g6\n":7191,"1N3R":7192,"2c2 <MOVE_SEP> d":7193,"5 White <MOVE_SEP> e1g1\n":7194,"2Pb4/":7195,"2PB3P/":7196,"8/5b2/":7197,"3c2 <MOVE_SEP> g":7198,"5N2/PP1PPPPP/RNBQKB1R w KQkq - 0 ":7199,"2QKBNR b KQkq - 0 ":7200,"2P3b1/":7201,"rnbqkb1r/1p3ppp/":7202,"2r1p3/":7203,"5Np1/":7204,"pPb":7205,"2R5 w - - 0 4":7206,"3p2/P":7207,"2b1/P":7208,"p2p1n":7209,"1r2kb1r/":7210,"B6P/":7211,"p1pP/":7212,"QRB":7213,"QP/":7214,"7f8q\n":7215,"2/P4PPP/":7216,"3ppn2/":7217,"1P/P4PP1/":7218,"7c8 <MOVE_SEP> f":7219,"NPPP/R1B":7220,"8/8/1k6/8/":7221,"4 Black <MOVE_SEP> b8c6\n":7222,"8 b - - 10 7":7223,"8 w - - 11 6":7224,"ppB":7225,"1pPp4/":7226,"8/p4k":7227,"1B2N":7228,"8 w - - 6 8":7229,"3n2k1/":7230,"8e8 <MOVE_SEP> a":7231,"7b7 <MOVE_SEP> e":7232,"5 15":7233,"1e6\n":7234,"1p1n/":7235," White <MOVE_SEP> b1d1\n":7236,"p1pN":7237,"4ppp1/":7238,"qr":7239,"2b1/8/":7240,"6k1/6P1/":7241,"7 <MOVE_SEP> h1h":7242,"3BK3/":7243,"pP3/P":7244,"1P1P1P/R1B":7245,"6e4 <MOVE_SEP> c":7246,"2P3/1P":7247,"2P5/2N5/PP1PPPPP/R1B":7248,"6K1 b - - 3 4":7249,"2/PP1B":7250,"8b2\n":7251," Black <MOVE_SEP> c5d4\n":7252,"3 Black <MOVE_SEP> f8e7\n":7253,"1q4k1/":7254,"8c2\n":7255,"5p2/p7/":7256,"1P1B/":7257,"pP5p/":7258,"12 6":7259,"2pp1n2/8/":7260,"8/8/p7/P":7261,"1q <MOVE_SEP> e":7262,"2g1q\n":7263,"2d1 <MOVE_SEP> c":7264,"R1b":7265,"n1b":7266," w - - 2":7267,"8/8/8/3k4/8/":7268,"pp2r":7269,"3g5 <MOVE_SEP> e":7270,"r1b1k1r1/":7271,"n1P":7272,"1N2p3/":7273,"4R3/P":7274,"p2p1n1p/":7275,"4r1b":7276,"1N5P/":7277,"2b1k3/":7278,"3RR1K1 w - - ":7279,"4R3 b - - 1 3":7280,"8/8/2B":7281,"1p1bpn2/":7282,"1p2bp1p/":7283,"q3P":7284,"1qB":7285,"1pPP":7286,"1c1 <MOVE_SEP> a":7287,"R4p2/":7288,"3 <MOVE_SEP> f8b":7289,"3B1P1P/":7290,"rnbqkbnr/pp1p1ppp/4p3/2p5/2P5/":7291,"4P3/2N5/PPPP1PPP/R1BQKBNR b KQkq - 1 2":7292,"ppp/4p3/":7293,"p1p1p2p/":7294,"1P1k":7295,"2pk4/":7296,"1P1Pp/":7297,"1pp1bpp1/":7298,"2bp1/":7299,"5P1N/":7300,"2c4 <MOVE_SEP> d":7301,"P3K3/":7302,"3g3 <MOVE_SEP> g":7303,"6h3\n":7304," w Kkq - 1 1":7305,"1p1pp/":7306,"1b\n":7307,"p4p1/":7308,"8f3\n":7309,"2P2K":7310,"Qb":7311,"8 b - - 10 5":7312,"p2Pp3/":7313,"K1 b k - 1 2":7314,"1k3r2/":7315,"1P3P2/P":7316,"2Pp3p/":7317,"2p2/1P":7318,"3B1N2/PPP2PPP/R":7319,"p1P4P/":7320,"p2pN":7321,"5d6 <MOVE_SEP> b":7322,"1B1K":7323,"5pB1/":7324," Qk - ":7325,"PpN":7326,"1K2R w KQ - 1 1":7327,"r1p1/":7328,"1p3p1/":7329,"3p2pP/":7330,"4c8\n":7331,"r3r2k/":7332,"1q <MOVE_SEP> d":7333,"3c4 <MOVE_SEP> c":7334,"2P1R3/":7335,"7n/8/":7336,"8/2N":7337,"3d7\n":7338,"PP1PN":7339,"2nP/":7340,"3k4/8/8/8/":7341,"4p1N1/":7342,"p1P4/":7343,"7 Black <MOVE_SEP> e8g8\n":7344,"5kP1/":7345,"1k4P1/":7346,"p1p4P/":7347,"5QK":7348,"8/8/4R3/":7349,"7b6 <MOVE_SEP> c":7350,"1Rn":7351,"2n1q":7352,"p1pP4/":7353,"p2n1pp1/":7354,"8 w - - 10 6":7355,"qp/":7356,"1np5/":7357,"4d6 <MOVE_SEP> e":7358,"4rbk1/":7359,"q1bppp/":7360,"r4bk1/":7361,"4k1P1/":7362,"PP4PP/R":7363,"6NP/":7364,"2P1b3/":7365,"3pPp2/":7366,"2B3P/":7367,"g1f3 <MOVE_SEP> c7c":7368,"rnbqkbnr/pppppppp/8/8/8/5N2/PPPPPPPP/RNBQKB1R b KQkq - 1 1 Black <MOVE_SEP> c7c5\n":7369,"rnbqkbnr/pp1ppppp/8/2p5/8/5N2/PPPPPPPP/RNBQKB1R w KQkq - 0 ":7370,"rp6/":7371,"1ppp/4p3/":7372,"QKBNR w KQkq - 1 5":7373,"4p2/8/":7374,"4Pp1/":7375,"8/8/3R4/":7376,"6k1/1p6/":7377,"3 Black <MOVE_SEP> e8g8\n":7378,"K1 b kq - 0 2":7379,"4PR":7380,"3kp3/":7381,"8/1Q6/":7382,"4 <MOVE_SEP> b1d":7383,"1nr":7384,"3Nn":7385,"p2p2pp/":7386,"3 <MOVE_SEP> b1c":7387,"2b2k2/":7388,"8b\n":7389,"4k3 b - - ":7390,"7 <MOVE_SEP> h2g":7391," Black <MOVE_SEP> c8b7\n":7392,"11 8":7393,"2R3R":7394,"1rr":7395,"3Q2K1 b - - ":7396,"3 b - - 2 3":7397,"2b2 <MOVE_SEP> e":7398,"4k3/5p2/":7399,"1P2PP2/":7400,"6 15":7401,"8/2Q5/":7402,"7d6 <MOVE_SEP> d":7403,"4p2r/":7404,"6d6 <MOVE_SEP> f":7405,"5Qp1/":7406,"3N1p2/":7407,"1p2R3/":7408,"4R2K/":7409,"2q1bppp/":7410,"3N2k1/":7411,"rnbqkb1r/pp1ppp1p/5np1/":7412,"2b2r2/":7413,"7b7 <MOVE_SEP> f":7414,"1pr/":7415,"4p3/2B":7416,"pr/":7417,"3 White <MOVE_SEP> b2b3\n":7418,"3nN":7419,"5Q1p/":7420,"0 Black <MOVE_SEP> f7f6\n":7421,"8 White <MOVE_SEP> f2f3\n":7422,"4 Black <MOVE_SEP> e8g8\n":7423,"qk/":7424,"3e7\n":7425,"p1n3p1/":7426,"1b <MOVE_SEP> ":7427,"1 b - - 0 4":7428,"4a7\n":7429,"1k5/8/":7430,"3e5 <MOVE_SEP> c":7431,"ppn/":7432,"4 <MOVE_SEP> a5b":7433,"2P1p1/":7434,"3bn":7435,"7d8 <MOVE_SEP> g":7436,"2c1 <MOVE_SEP> f":7437,"4 <MOVE_SEP> b5a":7438,"p1qb":7439,"b1f1\n":7440,"8 b - - 0 10":7441,"1qP":7442,"3d3 <MOVE_SEP> f":7443,"0 White <MOVE_SEP> f2f3\n":7444,"6k1/2R5/":7445,"2/p3p":7446,"2e2 <MOVE_SEP> g":7447,"1q5P/":7448,"p1b1p3/":7449,"6Qp/":7450,"2p1P3/8/":7451,"2p1pP":7452,"6 0 2":7453,"6a3\n":7454,"1f6\n":7455,"7 15":7456,"r1bqk2r/ppp2ppp/":7457,"2Rn":7458,"1pp4/":7459,"2K4/8/":7460,"2b1p2p/":7461,"4nk2/":7462,"2f1q\n":7463,"1P3B2/":7464,"p2P3p/":7465,"5 <MOVE_SEP> d8d":7466,"2PR4/":7467,"4 <MOVE_SEP> g7h":7468,"2NQ1N":7469,"2e1 <MOVE_SEP> c":7470,"1p1K4/":7471,"5P1P/6P1/":7472,"1 White <MOVE_SEP> f2f3\n":7473,"8/8 b - - 0 4":7474,"2r1p/":7475,"2e4 <MOVE_SEP> f":7476,"K1 b k - 2 1":7477,"P3P3/1P":7478,"r1b2rk1/ppq":7479,"3K2R b KQkq - 1 1":7480,"Q1RK1 w kq - 1 1":7481," b - - 4 3":7482,"5 <MOVE_SEP> b1a":7483,"NBQKB1R b KQkq - 0 3 Black <MOVE_SEP> c":7484,"3R4/P":7485,"3Q1PP1/":7486,"1r1/8/":7487,"N2/P":7488,"1N1/P":7489,"2P2n":7490," w - - 3 4":7491,"q1p1/":7492,"2ppP3/3P4/":7493,"p5Pp/":7494,"8/8/6R1/":7495,"QKBR":7496,"2Bp4/":7497,"2RK1 b - - 0 1":7498,"QR1K1 b - - 0 1":7499,"3f3 <MOVE_SEP> d":7500,"2p1bppp/":7501,"4 <MOVE_SEP> b1a":7502,"P1BPPP/R":7503,"2 Black <MOVE_SEP> f7f6\n":7504,"8 b - - 3 9":7505,"2r2k":7506,"3e5 <MOVE_SEP> f":7507,"7b6 <MOVE_SEP> e":7508,"2p3P/":7509,"1P3n":7510,"2NB1N1P/":7511,"K1 w - - 3 3":7512,"3d3 <MOVE_SEP> e":7513,"8/8/1R":7514,"2p3/8/":7515,"7d6 <MOVE_SEP> g":7516,"5RK1 b - - 1 3":7517,"2p2Q":7518,"8 b - - 4 9":7519,"p5pP/":7520,"5K2 b - - 1 5":7521,"6 White <MOVE_SEP> a2a3\n":7522,"4R1K1 b - - 1 2":7523,"2/1PP1B":7524,"8b <MOVE_SEP> ":7525,"2R2RK1 b - - 0 2":7526,"0 Black <MOVE_SEP> g7g6\n":7527,"1Qn":7528,"8/4N3/":7529,"2N1PP":7530,"3R3K/":7531,"1R6 w - - 0 3":7532,"2N5/PPP1N":7533,"2p3p1/P":7534,"2p1P2P/":7535,"8q <MOVE_SEP> c":7536,"1b2r":7537,"8 15":7538,"8 White <MOVE_SEP> h2h3\n":7539,"3R2K1 b - - 1 3":7540,"3f2 <MOVE_SEP> f":7541,"3R2K1 b - - 1 2":7542,"1p1r/":7543,"1 White <MOVE_SEP> a2a3\n":7544,"8/3q4/":7545,"1NP5/":7546,"3f3 <MOVE_SEP> e":7547,"4 Black <MOVE_SEP> f7f6\n":7548,"5NK1/":7549,"12 7":7550,"3K4/8/8/8/":7551,"3p4/2PP4/8/PP2PPPP/R":7552,"2PpN":7553,"1 <MOVE_SEP> g1h":7554,"1p2P2P/":7555,"3 w - - 2 2":7556,"6b1 w - - ":7557,"5 White <MOVE_SEP> f2f3\n":7558,"1 Black <MOVE_SEP> f7f6\n":7559,"3p1K2/":7560,"q5k1/":7561,"1bR":7562,"r1p5/":7563,"5 Black <MOVE_SEP> f7f6\n":7564,"N1QK2R w KQkq - ":7565,"2p2P1P/":7566,"2QK2R w KQ - ":7567,"2q1p/":7568,"5r1r/":7569,"3p4/P2P":7570,"5 Black <MOVE_SEP> f8e7\n":7571,"r1bqkb1r/pp1p1ppp/2n1pn2/":7572,"5a1\n":7573,"3c3 <MOVE_SEP> e":7574,"3bk3/":7575,"8/8/5P2/":7576,"1q3p2/":7577,"2p1r3/":7578,"2K2p2/":7579,"4nP2/":7580,"1R4K1 w - - 0 3":7581,"PP1P1/":7582,"3kr3/":7583,"Q1RK1 b kq - 1 1":7584,"1b1n1ppp/":7585,"4 White <MOVE_SEP> e1g1\n":7586,"8/8/8/p7/":7587,"2pp4/4P3/":7588,"4Q1p1/":7589,"p3bp2/":7590,"4h1\n":7591,"qppppp/":7592,"2p1K":7593,"P5k1/":7594,"p4q2/":7595,"5 <MOVE_SEP> g2h":7596,"5k2/P":7597,"7 Black <MOVE_SEP> g7g6\n":7598,"8 w - - 5 9":7599,"4b3 <MOVE_SEP> g":7600,"8 w - - 11 7":7601,"8 Black <MOVE_SEP> f7f6\n":7602,"1p5K/":7603,"2qp/":7604,"2pP2P1/":7605,"3P1p1p/":7606,"5K1k/":7607,"3bP/":7608,"6c7 <MOVE_SEP> b":7609,"7c8 <MOVE_SEP> e":7610,"8 Black <MOVE_SEP> g7g6\n":7611,"8q <MOVE_SEP> b":7612,"2QP":7613,"3R4 w - - 1 3":7614,"1e3 <MOVE_SEP> d":7615,"5e6 <MOVE_SEP> b":7616,"1pPn":7617,"r1bqkb1r/pp1n1ppp/":7618,"8/5Q2/":7619,"3 b - - 2 2":7620,"3R4 w - - 1 4":7621,"8f7 <MOVE_SEP> b":7622,"8/1p4k1/":7623," w q - 0 2":7624,"2/p1P":7625,"2 w - - 3 2":7626,"6 <MOVE_SEP> a3b":7627,"5nP1/":7628,"1q <MOVE_SEP> c":7629,"1p4P/":7630,"1B1b":7631,"5g4 <MOVE_SEP> b":7632," b - - 2":7633,"1P4R1/":7634," White <MOVE_SEP> a2a1\n":7635,"2 White <MOVE_SEP> f2f3\n":7636,"3h7\n":7637,"8/8/8/8/4k3/":7638,"2R2RK1 w - - 0 2":7639,"2pQ4/":7640,"5KPP/":7641," b kq - 1 2":7642,"2pp1np1/8/":7643,"1R6 b - - 0 3":7644,"3K2R b KQ - 0 2":7645,"n1p1p":7646,"5c6 <MOVE_SEP> b":7647,"2p1/6P1/":7648,"QKB1R b KQkq - 1 5":7649,"4Np2/":7650,"b1c3\n":7651,"3rk/":7652,"1 w - - 2 2":7653,"6 White <MOVE_SEP> f2f3\n":7654,"1P1PB":7655,"1kp5/":7656,"1qn1p3/":7657,"1B1NB":7658,"4 White <MOVE_SEP> f2f3\n":7659,"2p2q2/":7660,"2BQ1R":7661,"3Bp/":7662,"2e6\n":7663,"KN":7664,"2/2P2P2/":7665,"3PP1P/":7666,"PPB1/R":7667,"7 White <MOVE_SEP> f2f3\n":7668,"1P2PPBP/R":7669,"5d3 <MOVE_SEP> e":7670,"p2p2p1/P":7671,"2 b - - 2 4":7672,"4K3 w - - 0 4":7673,"3P2n1/":7674,"2q2p1p/":7675,"2P5/PP3PPP/R":7676,"4b8\n":7677,"1n1p1p/":7678,"2b3 <MOVE_SEP> e":7679,"2N1PN2/PP1P1PPP/R1B":7680,"8/8/5r2/":7681,"rn1r2k1/":7682,"1P6/P7/":7683,"8/k7/8/":7684,"5kpp/":7685,"b3P":7686,"PPP2PPP/":7687,"3 <MOVE_SEP> h8h":7688,"2d6\n":7689,"3g3 <MOVE_SEP> e":7690,"q1N":7691,"3Pp1p1/":7692,"8/8/1R6/":7693,"4pB2/":7694,"2K5/8/8/8/":7695,"4KP1P/":7696,"1PN2/1P":7697,"p1pp4/":7698,"6 Black <MOVE_SEP> f7f6\n":7699,"6 White <MOVE_SEP> g2g3\n":7700,"NBQKB1R w KQkq - 1 6":7701,"5b1\n":7702,"2p2B2/":7703,"2B1/8/":7704,"6K1 b - - 1 2":7705,"PP2PP1P/R":7706,"8/8/8/8 w - - 4":7707,"4Kp2/":7708,"r4b2/":7709,"1R2N":7710,"Pp5P/":7711,"rnbqk2r/ppp1bppp/4pn2/":7712,"8/8/1b":7713,"7a3\n":7714,"6np/":7715,"p1R5/":7716,"5 White <MOVE_SEP> a2a3\n":7717,"6e7 <MOVE_SEP> b":7718,"6 <MOVE_SEP> b1a":7719,"PP3PBP/R1B":7720,"3K2R w KQ - 0 2":7721,"4K2R w K - ":7722,"2BP1/":7723,"7P/5PP1/":7724,"2P1p2p/":7725,"7c8q\n":7726,"6P1/PP1PPPBP/R":7727,"p5bp/":7728,"r2k3r/":7729," Black <MOVE_SEP> f8b4\n":7730,"5c6 <MOVE_SEP> g":7731,"4 Black <MOVE_SEP> e7e6\n":7732,"4 White <MOVE_SEP> b2b3\n":7733,"r1bqkb1r/pp2pp1p/":7734,"2P2P2/P":7735,"4N1K1/":7736,"1PN1P3/P":7737,"6Pb/":7738,"q2b":7739,"QK2R w KQ - 1 1":7740,"7K w - - 0 3":7741,"3f3 <MOVE_SEP> c":7742,"8h8 <MOVE_SEP> f":7743,"8 b - - 9 7":7744,"9 Black <MOVE_SEP> g7g6\n":7745,"3p1P1P/":7746,"rn1qk1nr/pp":7747,"Np1/":7748,"8/5p1p/":7749,"nn":7750,"1b2bpp1/":7751,"2f4 <MOVE_SEP> d":7752,"P1/P1Q":7753,"8b7 <MOVE_SEP> g":7754,"1Q5p/":7755,"3c2 <MOVE_SEP> b":7756,"9 Black <MOVE_SEP> f7f6\n":7757," w - - 0 6":7758,"qnbppp/":7759,"2N5/PPP2PPP/R":7760,"5e1\n":7761,"R3K1R":7762,"b5p1/":7763,"4p2K/":7764,"6B1 b - - ":7765,"8/8/8/7K/":7766,"3 White <MOVE_SEP> f1g2\n":7767,"p5R":7768,"2nk1/":7769,"8/5p2/8/":7770,"4pK2/":7771,"1K5/8/":7772,"r5r":7773,"8/8/1r6/":7774,"7c5 <MOVE_SEP> e":7775,"9 White <MOVE_SEP> f2f3\n":7776,"2PPn3/":7777,"4 White <MOVE_SEP> d2d4\n":7778,"2r3r1/":7779,"2p1P3/P":7780,"8/8/8/1k6/":7781,"P2N4/":7782," w k - 0 1":7783,"QKB1R b KQkq - 0 1":7784,"6pP/6P1/":7785,"8 b - - 5 3":7786,"p2b3p/":7787,"4 Black <MOVE_SEP> d7d5\n":7788,"q2r":7789,"3p2Pp/":7790,"8e6 <MOVE_SEP> d":7791,"2f1 <MOVE_SEP> b":7792," b kq - 3 1":7793,"1P/PP3P2/":7794,"2q1bpp1/":7795,"3NP/":7796,"2d4 <MOVE_SEP> c":7797,"5pp1/7p/":7798,"5P/R1B":7799,"3p2N1/":7800,"6g6 <MOVE_SEP> g":7801,"PP1BB":7802,"6P/R":7803,"2Q3p1/":7804,"5 <MOVE_SEP> b4a":7805,"p1Pp/":7806,"4r3/6k1/":7807,"p2ppp/4p3/":7808,"7 Black <MOVE_SEP> f7f6\n":7809,"2N1P3/PP1P1PPP/R1B":7810,"2k2K2/":7811,"5h8\n":7812,"2b1r/pp":7813,"1P1NQ":7814,"2P1B2P/":7815,"1/R6R":7816,"1e3 <MOVE_SEP> c":7817,"5k2/1P":7818,"7b2\n":7819,"1p4R1/":7820,"1Qp/":7821,"p2P3/":7822,"3P1R":7823,"5n1P/":7824,"P1N1P3/":7825,"1p3pp":7826,"2br2k1/":7827,"2Pp4/8/":7828,"r3rbk1/":7829,"4PPBP/":7830,"pq6/":7831,"7R b - - 0 4":7832,"p4P1P/":7833,"7K/8/8 b - - ":7834,"K1P":7835,"B1/8/":7836,"3rr":7837,"8/4k1p1/":7838,"2k3P1/":7839,"2p3pP/":7840,"P3q":7841,"r1b1qrk1/":7842,"3N1K2/":7843,"8f8 <MOVE_SEP> a":7844,"3BB3/":7845,"12 5":7846,"6c6 <MOVE_SEP> e":7847,"6f6 <MOVE_SEP> d":7848,"5K1 w - - 1 2":7849,"1e7\n":7850,"3P1b2/":7851,"3 Black <MOVE_SEP> f7f6\n":7852,"K1 b - - 5 1":7853,"7d3\n":7854,"3P4/2N5/PPP1PPPP/R1B":7855,"13 7":7856,"1R2Q":7857,"4b3/P":7858,"1PP/R4R":7859,"8/6k1/6p1/":7860,"1p3n2/8/":7861,"8/8/1B":7862,"4NK":7863,"p1P4p/":7864,"k2r":7865,"3g2 <MOVE_SEP> b":7866," Qq - ":7867,"1Pp3/":7868,"P2k":7869,"R7 b - - 0 3":7870,"1p2bp2/":7871,"1P3NP1/":7872,"R2b":7873,"1P5r/":7874,"2p2R":7875," Black <MOVE_SEP> c8f5\n":7876,"3 Black <MOVE_SEP> a7a6\n":7877,"3b1ppp/":7878,"6d6 <MOVE_SEP> e":7879,"1 Black <MOVE_SEP> g7g6\n":7880,"0 Black <MOVE_SEP> a7a6\n":7881,"3ppp/4p3/":7882,"1n1p2/":7883,"8f8 <MOVE_SEP> h":7884,"3KP3/":7885,"2c1 <MOVE_SEP> e":7886,"6B1 w - - ":7887,"4d3 <MOVE_SEP> b":7888,"Q2PPP/R1B":7889,"7b6 <MOVE_SEP> d":7890,"PP1P4/":7891,"3/1P2B":7892,"3 Black <MOVE_SEP> b7b6\n":7893,"1P/PB":7894,"bR":7895,"4e6 <MOVE_SEP> f":7896,"2RK1 w - - 0 1":7897,"1 b - - 2 2":7898,"6Np/":7899,"P4Q":7900,"1R w - - 1 1":7901,"1c2 <MOVE_SEP> c":7902,"4q1P1/":7903,"0 White <MOVE_SEP> g2g3\n":7904,"1 White <MOVE_SEP> h4h5\n":7905,"q1P5/":7906,"1n5p/":7907,"2P2p1p/":7908,"P1pP/":7909,"1P3/P1N":7910,"kp6/":7911,"rnbqkbnr/ppp2ppp/3p4/":7912,"5r2/P":7913,"2k1p3/":7914,"B2/P":7915,"npp/":7916,"1P4K":7917,"6f6 <MOVE_SEP> e":7918,"3 <MOVE_SEP> f2g":7919,"4QPP1/":7920,"1b1nbppp/":7921,"pp3pb1/":7922,"1d2 <MOVE_SEP> a":7923,"8 b - - 7 8":7924,"8/8/4r3/":7925,"3Pb3/":7926,"3e3 <MOVE_SEP> c":7927,"3c7\n":7928,"3p1P":7929,"4 Black <MOVE_SEP> a7a6\n":7930,"1PBPPP/R":7931,"1r2/8/":7932,"8 b - - 8 4":7933,"1q4P1/":7934,"4d4 <MOVE_SEP> f":7935,"6g7 <MOVE_SEP> h":7936,"1qp/":7937,"2c1q\n":7938,"5c5 <MOVE_SEP> c":7939,"1rN":7940,"Bp1/":7941,"P1N3P1/":7942,"1p4p1/8/":7943,"q1B":7944,"QKB1R w KQkq - 1 5":7945,"2B1/P":7946,"p2p3P/":7947,"4/P6P/":7948,"2P2N2/PP1P1PPP/R":7949,"p5B":7950,"3 0 1":7951,"K1 w kq - 3 1":7952,"N2/PP":7953,"2/P4PPP/R1B":7954,"8c6 <MOVE_SEP> d":7955,"2p2P1/":7956,"3g3 <MOVE_SEP> d":7957,"1k1p1/":7958,"3p/8/":7959," White <MOVE_SEP> d4d5\n":7960,"7c8 <MOVE_SEP> d":7961,"6Pp/7P/":7962,"8/p5p1/":7963,"K1 w - ":7964,"2/p1n":7965,"4c4 <MOVE_SEP> f":7966,"6rr/":7967,"8e6 <MOVE_SEP> c":7968,"p1p2n2/":7969,"p1p3pp/":7970,"1P1P1N":7971,"4R3 w - - 1 4":7972,"1pN5/":7973,"3p2p1/P":7974,"r5kr/":7975,"7r/pp":7976,"1p4B1/":7977,"4PBP/":7978,"2 b - - 0 5":7979,"PPR":7980,"r2q1k1r/":7981,"2rN":7982,"6c2\n":7983,"P1/PP1N":7984,"1b1B":7985,"2PP1P/":7986,"4f8\n":7987,"1bPP":7988,"3R2K":7989,"2d1 <MOVE_SEP> g":7990,"p2pbp/":7991,"1P2P1P1/P":7992,"4K3 b - - 0 3":7993,"BP/RNBQ1RK1 b kq - ":7994,"2P3n1/":7995,"4rP2/":7996,"7K b - - 1 4":7997,"6g7 <MOVE_SEP> g":7998,"7b7 <MOVE_SEP> d":7999,"b1p1p":8000,"5 <MOVE_SEP> b6a":8001,"4 White <MOVE_SEP> f1g2\n":8002,"b1P/":8003,"8 w - - 1 10":8004,"2PPK/":8005,"5q1k/":8006,"13 6":8007,"6RR":8008,"2R3K":8009,"4pP1P/":8010,"1PPn":8011,"2b2 <MOVE_SEP> f":8012,"p1p1b":8013,"5 Black <MOVE_SEP> a7a6\n":8014,"3n1P2/":8015,"9 White <MOVE_SEP> h2h3\n":8016,"PP4B":8017,"r1bqkb1r/1p3ppp/":8018,"1K1N":8019,"8e3\n":8020,"P4N2/":8021,"2NPP/":8022,"2/p5p1/":8023,"6r1/P":8024,"3Pp3/8/":8025,"P7/1P6/":8026,"8 b - - 0 2":8027,"8/8/8/8 b - - 3":8028,"rn1qkb1r/pp3ppp/":8029,"3d3 <MOVE_SEP> c":8030,"PN1PPP/R1B":8031,"2N2N2/PP1P1PPP/R1B":8032,"PPQ1PP":8033,"1p2P2p/":8034,"1q <MOVE_SEP> b":8035,"3P1B1P/":8036,"P2Q4/":8037,"4K/8/":8038,"3f2 <MOVE_SEP> b":8039,"1c8\n":8040,"7 White <MOVE_SEP> g2g3\n":8041,"q6P/":8042,"PB6/":8043,"6 <MOVE_SEP> f7g":8044,"6pB/":8045,"8 w - - 10 7":8046,"3RR1K1 b - - 0 2":8047,"3 White <MOVE_SEP> h4h5\n":8048,"3pp2p/":8049,"q6/":8050,"5b2 w - - ":8051,"6b1 b - - ":8052,"rnbqkbnr/pp1p1ppp/4p3/2p5/":8053,"4 <MOVE_SEP> b3a":8054,"2pP4/4P3/":8055,"3f7\n":8056,"2p1P1p1/":8057,"5b1 <MOVE_SEP> ":8058,"1p2P1/":8059,"7d5 <MOVE_SEP> c":8060,"6K1/8 b - - 0 4":8061,"5 <MOVE_SEP> a4b":8062,"1K4/8/":8063,"8 b - - 8 8":8064,"3P1N2/":8065,"5K1 w - - 0 3":8066,"4e8\n":8067,"3a7\n":8068,"pQ/":8069,"B2B":8070,"5 White <MOVE_SEP> b2b3\n":8071,"2c1 <MOVE_SEP> d":8072,"4 <MOVE_SEP> h8h":8073,"1b4k1/":8074,"2npp3/":8075,"kr/":8076,"0 White <MOVE_SEP> h4h5\n":8077,"3BP":8078,"4n1p/":8079,"3 <MOVE_SEP> b1a":8080,"rn4k1/":8081,"1 w - - 2 3":8082,"P3R3/":8083,"1P2P/P":8084,"7c7 <MOVE_SEP> g":8085,"qp2/":8086,"1B2/2P":8087,"3/P7/8/":8088,"7P/7K/":8089,"1kpp/":8090,"8 w - - 10 5":8091,"8 White <MOVE_SEP> h4h5\n":8092,"8b3\n":8093,"1ppp1/":8094,"8/4q3/":8095,"3bp2p/":8096,"6f6 <MOVE_SEP> c":8097,"QR1K1 w - - 0 1":8098,"2pNp3/":8099,"6 Black <MOVE_SEP> a7a6\n":8100,"n2/P":8101,"p1K5/":8102,"1ppn1ppp/":8103," Qkq - 1 1":8104,"1p1b2p1/":8105,"6e6 <MOVE_SEP> c":8106,"2N5/PP1P1PPP/R1B":8107,"b6p/":8108,"1p1P3/":8109,"K1 w - - 5 1":8110,"P3PN2/":8111,"1P4P1/PB":8112,"8/8/r":8113,"2n1pn":8114,"b1Q":8115,"1P3P2/R":8116,"2P2R2/":8117,"2f3 <MOVE_SEP> a":8118,"3P1N2/PP":8119,"6g6 <MOVE_SEP> e":8120,"b1a2\n":8121,"2N2N2/PPP1PPPP/R1B":8122,"3e3 <MOVE_SEP> d":8123,"7 White <MOVE_SEP> a2a3\n":8124,"4 White <MOVE_SEP> a2a3\n":8125,"3q3k/":8126,"4h7\n":8127,"2/P1P2PPP/R":8128,"2B1P3/8/PPPP1PPP/R":8129,"PPP2PP1/":8130,"4a8\n":8131,"6PR/":8132,"4pn2/p":8133,"Q4R":8134,"4kb2/":8135,"7e5 <MOVE_SEP> c":8136,"3p4/2pP":8137,"2QKB1R w KQ - ":8138,"2/1P2Q":8139,"3pP1P1/":8140,"3pK":8141,"1n1/P":8142,"NBQK1NR b KQkq - 0 ":8143,"p1np4/":8144,"1f3 <MOVE_SEP> e":8145,"4c3 <MOVE_SEP> b2c":8146,"1P2PP1P/R":8147," White <MOVE_SEP> c1e3\n":8148,"4e3 <MOVE_SEP> b":8149,"5Pb1/":8150,"2P1N/":8151,"8/8/8/8 w - - 3":8152,"2c3 <MOVE_SEP> c":8153,"7R/P":8154,"2r2k1r/":8155,"2NB3P/":8156,"5K1 b - - 0 3":8157,"1e8\n":8158,"1p4q1/":8159,"4c4 <MOVE_SEP> c":8160," b Kk - 0 1":8161,"1P3p1p/":8162,"8/8/3n":8163," w - - 1 5":8164,"3 w - - 1 4":8165,"1p1bbppp/":8166,"R5K1 b - - 0 3":8167,"2n3P1/":8168," Black <MOVE_SEP> f8d6\n":8169,"1pn1p2p/":8170,"ppb/":8171,"K1 w k - 2 1":8172,"P4PK1/":8173,"1f1 <MOVE_SEP> a":8174,"r1q1k2r/":8175,"2p5/N":8176,"1PKP/":8177,"11 4":8178,"p1p2p1p/":8179,"6R1/P":8180,"8/N":8181,"1rr5/":8182,"4KP1/":8183," Black <MOVE_SEP> d5c4\n":8184,"1a1 <MOVE_SEP> f":8185,"p2P3P/":8186,"3p1k/":8187,"3np/":8188,"2k2P2/":8189,"6 White <MOVE_SEP> h4h5\n":8190,"2 Black <MOVE_SEP> f8e7\n":8191,"8 White <MOVE_SEP> g2g3\n":8192,"5r1k/8/":8193,"b5P1/":8194,"p1pp1ppp/":8195,"rq3rk1/":8196,"2p1p2P/":8197,"8a8 <MOVE_SEP> g":8198,"r2qkb1r/pb":8199,"3R2K1 w - - 1 2":8200,"Q2N":8201,"3r1k1/":8202,"2nPp":8203,"8/8 b - - 1 5":8204,"8/8 b - - 0 7":8205,"6f2\n":8206,"8/8/8/K":8207,"3r4/6k1/":8208,"9 White <MOVE_SEP> h4h5\n":8209,"qP/":8210,"1nppbp/":8211,"4 White <MOVE_SEP> h4h5\n":8212,"1BN1P/":8213,"3k2K1/":8214,"2p2pp":8215,"5P1B/":8216,"p5q":8217,"2/P1B":8218,"2e4 <MOVE_SEP> e":8219,"1p2pnp1/":8220,"1 White <MOVE_SEP> g2g3\n":8221,"4R3 w - - 1 3":8222,"5d3 <MOVE_SEP> c":8223,"PPPPNPPP/R":8224,"PPb":8225,"8/7k/8/":8226,"8q <MOVE_SEP> h":8227,"PP1/3R1R":8228,"8/8/8 b - - 0 8":8229,"1P1n4/":8230,"1p1np1/":8231,"rn1qkbnr/pp2pppp/2p5/":8232,"8/1pk":8233,"1B1/R":8234,"8/5R2/8/":8235,"1P1PP/":8236,"2p1Pp":8237,"1b6\n":8238,"2 White <MOVE_SEP> h4h5\n":8239," b - - 3 4":8240,"1c2 <MOVE_SEP> b":8241,"3g4 <MOVE_SEP> g":8242,"8 w - - 9 8":8243,"3N1P1P/":8244,"2QR1K1 b - - 0 1":8245,"4k3/6p1/":8246,"1K2R b KQkq - 0 ":8247,"9 15":8248,"p1N5/":8249,"5 White <MOVE_SEP> b1c3\n":8250,"r1bqkb1r/pp1ppppp/2n2n2/":8251,"1f1 <MOVE_SEP> h":8252,"2e4 <MOVE_SEP> c":8253,"2b3 <MOVE_SEP> c":8254,"N1QKBNR w KQkq - 0 ":8255,"2n2n2/8/":8256,"6nP/":8257,"P1p4P/":8258,"8d8 <MOVE_SEP> h":8259,"1p1p1n":8260,"5Bk1/":8261,"2pb/":8262,"8/8/5R2/":8263,"4 White <MOVE_SEP> f1e2\n":8264,"5 White <MOVE_SEP> h3h4\n":8265,"p2n2/":8266,"p3b1pp/":8267,"2rqk2r/pp":8268,"3P1NP1/PP2PP":8269,"5 <MOVE_SEP> g3h":8270,"p3P1p1/":8271,"5K2/p":8272,"P1PQ":8273,"rn1qk1nr/":8274,"4 Black <MOVE_SEP> b7b6\n":8275,"pp3r":8276,"1PPK/":8277,"8a8 <MOVE_SEP> a":8278,"8/8/2R5/":8279,"1B2K":8280,"7e8 <MOVE_SEP> e":8281,"5npp/":8282,"6 <MOVE_SEP> h8h":8283,"1 Black <MOVE_SEP> a7a6\n":8284,"p1n1b":8285,"5 White <MOVE_SEP> f1e2\n":8286,"6g2\n":8287,"4B3/1P":8288,"4R1K1 w - - 1 2":8289,"PpB":8290,"3 White <MOVE_SEP> e4e5\n":8291,"5p1n/":8292,"2K2k2/":8293,"2nn":8294,"1P3k2/":8295,"3k1r2/":8296,"4e4 <MOVE_SEP> f":8297,"4P3/5P2/":8298,"2br4/":8299,"P1P1Q":8300,"1pbpp1/":8301,"PPP/3RK2R":8302,"1P3q":8303,"4K2k/":8304,"5c5 <MOVE_SEP> f":8305,"r1b1k2r/pp3ppp/":8306,"8c1\n":8307,"9 White <MOVE_SEP> g2g3\n":8308,"p5K":8309,"3b1r/":8310,"2n3pp/":8311,"2Qn":8312,"2P5/6P1/":8313,"0 White <MOVE_SEP> h3h4\n":8314,"8e2\n":8315,"7e5 <MOVE_SEP> e":8316,"8/8/B":8317,"1K1 b - - 1 3":8318,"3K2R b KQ - 2 1":8319,"0 White <MOVE_SEP> a4a5\n":8320,"2R3K1 w - - 1 3":8321,"2 Black <MOVE_SEP> a7a6\n":8322,"p1n1/":8323,"6a2\n":8324,"12 8":8325,"1P4PK/":8326,"2 White <MOVE_SEP> h3h4\n":8327,"2P4K/":8328,"2q3P1/":8329,"2q2rk1/":8330,"1h1 <MOVE_SEP> f":8331,"5R2 w - - 1 4":8332,"1p2P3/1P":8333,"8/4q":8334,"3P1/R1B":8335,"1Pb5/":8336,"2b2 <MOVE_SEP> d":8337,"2Pp2p1/":8338,"6K1 w - - 0 6":8339,"5f1\n":8340,"2 White <MOVE_SEP> h2h3\n":8341,"3RR1K1 w - - 0 2":8342,"1q2pn2/":8343," b q - 0 2":8344,"q3b":8345,"1qN":8346,"7 White <MOVE_SEP> h4h5\n":8347,"1n5P/":8348,"2b3 <MOVE_SEP> d":8349,"1 w kq - ":8350,"8/2R5/8/":8351,"1P5P/R":8352,"2R2K2/":8353,"5 White <MOVE_SEP> h4h5\n":8354,"PPP/3R1R":8355,"1 Black <MOVE_SEP> a5a4\n":8356,"2B4R":8357,"1K2R w KQkq - 1 1":8358,"1a7\n":8359,"2PP4/P1N":8360,"1rP":8361,"QK1R":8362,"1p1pp3/":8363," b - - 1 5":8364,"2nb4/":8365,"2/1P1N":8366,"r3q1k1/":8367,"B6/":8368,"3K1B":8369,"6e6 <MOVE_SEP> f":8370,"1p3/4P3/":8371,"2c2 <MOVE_SEP> g":8372,"rnbqkbnr/pp2pp1p/":8373,"1p1p1np1/":8374,"4K3 b - - 0 4":8375,"3Q1K":8376,"3KN":8377,"6K1/8 b - - 0 5":8378,"4 White <MOVE_SEP> e4e5\n":8379,"2N2NPP/":8380,"0 Black <MOVE_SEP> a5a4\n":8381,"2pR4/":8382,"4R1R":8383,"2 Black <MOVE_SEP> a5a4\n":8384,"4 White <MOVE_SEP> h3h4\n":8385,"1p3k1p/":8386,"2 b - - 0 1":8387,"5f6 <MOVE_SEP> b":8388,"K1 w kq - 4 1":8389,"4d6 <MOVE_SEP> c":8390,"4K3 w - - 0 3":8391,"3g2 <MOVE_SEP> g":8392,"7R b - - 0 2":8393,"2 w Q - ":8394,"2p1pp/":8395,"3RR2K":8396,"p1p5/P1P":8397,"2rq2k1/":8398,"3P1B2/8/PPP1PPPP/RN1":8399,"6c6 <MOVE_SEP> f":8400,"5K2 w - - 1 3":8401,"7K w - - 0 5":8402,"5 White <MOVE_SEP> e2e3\n":8403,"2Q1P/":8404,"2c3 <MOVE_SEP> g":8405,"7e3\n":8406,"1f3 <MOVE_SEP> d":8407,"4/P3P":8408,"N1P2N":8409,"2g3 <MOVE_SEP> d":8410,"3P1K2/":8411,"2N/P":8412,"6P1/R":8413,"QKB1R w KQkq - 2 4":8414,"PP2P2P/":8415,"2rk4/":8416,"5b2 b - - ":8417,"1e2 <MOVE_SEP> a":8418,"6c7 <MOVE_SEP> c":8419,"1a8\n":8420,"7K b - - 0 5":8421,"5PP/R":8422,"3K1p2/":8423,"8 b - - 11 6":8424,"K1 w k - 1 2":8425,"4/P2B":8426,"kpp/":8427,"1R b - - 1 1":8428,"6p1/5p2/":8429,"8e1\n":8430,"6f7 <MOVE_SEP> b":8431,"2p3r1/":8432,"1q3n2/":8433,"1 White <MOVE_SEP> h3h4\n":8434,"1r3r":8435,"4pP1p/":8436,"6d6 <MOVE_SEP> c":8437,"1qp1/":8438,"1K2R b KQkq - 1 1":8439,"4Q3 b - - ":8440,"3c3 <MOVE_SEP> f":8441,"5 White <MOVE_SEP> f1g2\n":8442,"NPP/":8443,"8/8/3p4/":8444,"2b2P2/":8445,"rnb1kb1r/pp2pppp/":8446,"3p2n1/":8447,"1b2n":8448,"2ppp3/":8449,"8/4B":8450,"2p2k":8451,"2bk/":8452,"r4B":8453,"3/P1N5/":8454,"b/8/":8455,"3Bn":8456,"P7/6P1/":8457,"8e8 <MOVE_SEP> h":8458,"7h3\n":8459,"7R w - - 1 3":8460,"1r1B":8461,"1qp2n":8462,"4Q3/P":8463,"7f6 <MOVE_SEP> b":8464,"3nB":8465,"8e7 <MOVE_SEP> a":8466,"5K2/8/8/8/8/":8467,"3Pp1/":8468,"6k1/R7/":8469,"1p2Pp":8470,"1N1P1/":8471,"8 w - - 0 10":8472,"b1c2\n":8473,"Pb/":8474,"0 White <MOVE_SEP> f1e1\n":8475,"pb1nbppp/":8476,"1qp1p3/":8477,"rnb1r1k1/":8478,"5p1p/5P1P/":8479,"rnbqkb1r/ppp1pp1p/":8480,"3 Black <MOVE_SEP> a5a4\n":8481,"3R4 b - - 1 4":8482,"4f4 <MOVE_SEP> d":8483,"2Q1RK1 w kq - 0 1":8484,"5 Black <MOVE_SEP> b7b6\n":8485,"2QR1K1 w - - 0 1":8486,"1N2R":8487,"5k2/2R5/":8488,"pb1ppp/":8489,"3pP1/":8490,"1n3rk1/":8491,"1PP2PPP/":8492,"3P2K1/":8493,"6 <MOVE_SEP> c1g":8494,"k2r/":8495,"1BK/":8496,"4bp2/p":8497,"r3kb2/":8498,"2p1K3/":8499,"6 Black <MOVE_SEP> f8e7\n":8500,"7K w - - 1 4":8501,"N2KB1R b KQkq - ":8502,"1P1P1/P":8503,"8a2\n":8504,"2 <MOVE_SEP> g2h":8505,"1r2p3/":8506,"4pq":8507,"3e3 <MOVE_SEP> f":8508,"2p2np1/8/":8509,"4K2R b K - ":8510,"4ppp/":8511,"PPP3PP/R":8512,"5h2\n":8513,"5 <MOVE_SEP> h8h":8514,"1a1 <MOVE_SEP> e":8515,"1K4p1/":8516,"2n1/P":8517,"1/R3R":8518,"6 <MOVE_SEP> b1c3 <MOVE_SEP> g8f":8519,"2P2k2/":8520,"P6K/":8521,"8/8/2b5/":8522,"p7/1p6/":8523,"6b5 <MOVE_SEP> e":8524,"1p4pk/":8525,"3PpP":8526,"3g7\n":8527,"1 Black <MOVE_SEP> f8e8\n":8528,"2/1PP1Q":8529,"NBQKB1R w KQkq - 0 3 White <MOVE_SEP> c2c4\n":8530,"4f4 <MOVE_SEP> c":8531,"4p1P/":8532,"1PPP/R4R":8533,"1 White <MOVE_SEP> f1e1\n":8534,"5 w - - 0 3":8535," w Kk - 0 1":8536,"4f3 <MOVE_SEP> b":8537,"R7 b - - 0 4":8538,"4d2 <MOVE_SEP> f":8539,"3p4/3P1B2/8/":8540,"2 White <MOVE_SEP> a4a5\n":8541,"3P2B1/":8542,"1Q4":8543,"4 Black <MOVE_SEP> a5a4\n":8544,"2p5/4P3/2N5/PPPP1PPP/R1B":8545,"3K1 b - - 0 2":8546,"8/n":8547,"1p4Pp/":8548,"8 w - - 11 5":8549,"2P5/4P3/":8550,"Pp1P4/":8551,"2R5 b - - 1 3":8552,"0 Black <MOVE_SEP> f8e8\n":8553,"5PP1/R1B":8554,"q3P3/":8555,"ppr":8556,"1P3PB1/R":8557,"6 White <MOVE_SEP> h3h4\n":8558,"3b4 <MOVE_SEP> e":8559,"P3PN1P/":8560,"3NK3/":8561,"p2p1pp1/":8562,"3K1k2/":8563,"1q2b":8564,"4c4 <MOVE_SEP> e":8565,"1P/PP2BPP1/R1B":8566,"nP1/":8567,"8/8/5k1p/":8568,"5q1P/":8569,"1P1b4/":8570,"4P1n1/":8571,"N3P":8572,"b2b":8573,"6e6 <MOVE_SEP> d":8574,"p1pB":8575,"2 Black <MOVE_SEP> h6h5\n":8576,"Q3P3/":8577,"3p2P/":8578,"3 Black <MOVE_SEP> h6h5\n":8579,"1p4bp/":8580,"8/8/6r1/":8581,"2a6\n":8582,"bP1/":8583,"5d7 <MOVE_SEP> f":8584,"5p2/4p3/":8585,"2/p1b":8586,"pp1/7p/":8587,"2 Black <MOVE_SEP> f8e8\n":8588,"p1P2/":8589,"r1b2rk1/pp1n":8590,"13 8":8591,"3N1R":8592,"5b6 <MOVE_SEP> g":8593,"pP4P1/":8594,"6g6 <MOVE_SEP> d":8595,"1P2P2P/P":8596,"0 Black <MOVE_SEP> e6e5\n":8597,"b2N":8598,"1pp1pppp/":8599,"7R w - - 0 4":8600,"9 White <MOVE_SEP> h3h4\n":8601,"1p2ppb1/":8602,"7g6 <MOVE_SEP> d":8603,"6qP/":8604,"r1bqkbnr/pppp1ppp/":8605,"N1PP":8606,"1P4P":8607,"5R2 b - - 1 3":8608,"1B1n":8609,"8 w - - 4 9":8610,"6g7 <MOVE_SEP> b":8611,"4P2K/":8612,"5qP1/":8613,"P1k":8614,"5K1P/8/":8615,"2 Black <MOVE_SEP> h5h4\n":8616,"4KP2/8/":8617,"8 b - - 10 8":8618,"1rb3k1/":8619,"8a1\n":8620,"1pK5/":8621,"4p1k/":8622,"0 Black <MOVE_SEP> h5h4\n":8623,"1 White <MOVE_SEP> a4a5\n":8624,"5 White <MOVE_SEP> a4a5\n":8625,"1P2p2p/":8626,"pK6/":8627,"7g2\n":8628,"n6/":8629,"2f3 <MOVE_SEP> h":8630,"8/5p2/p":8631,"1r4r1/":8632,"7c6 <MOVE_SEP> g":8633,"4 Black <MOVE_SEP> h5h4\n":8634,"8/3r2k1/":8635,"4K1P/":8636,"1PpP/":8637,"1q <MOVE_SEP> h":8638,"ppqb":8639,"2c4 <MOVE_SEP> e":8640,"8 White <MOVE_SEP> h3h4\n":8641,"NB1K1NR":8642,"3KB1R w KQkq - ":8643,"P1K5/":8644,"2rp/":8645,"2qN":8646,"7e6 <MOVE_SEP> b":8647,"4d4 <MOVE_SEP> e":8648,"PR6/":8649,"6p1/6K1/":8650,"5 Black <MOVE_SEP> h5h4\n":8651,"2Pp2P1/":8652,"8/8 w - - 0 4":8653,"ppqn":8654,"B1n":8655,"7d8 <MOVE_SEP> d":8656,"4e4 <MOVE_SEP> c":8657,"8 Black <MOVE_SEP> h5h4\n":8658,"3Pk":8659,"p1np1/":8660,"5RK1 b - - 0 4":8661,"1pq1bpp1/":8662,"6 Black <MOVE_SEP> h6h5\n":8663,"3b4/P":8664,"1e1 <MOVE_SEP> h":8665,"5c5 <MOVE_SEP> e":8666,"8a8 <MOVE_SEP> b":8667,"4 <MOVE_SEP> h5g":8668,"2b1p3/2B1P3/":8669,"3rb":8670,"3qP3/":8671,"2ppN3/":8672,"4f4 <MOVE_SEP> e":8673,"1R6 b - - 0 4":8674,"5K/8/":8675,"3c2 <MOVE_SEP> c":8676,"2pP1p2/":8677,"3 White <MOVE_SEP> h3h4\n":8678,"4R1K1 b - - 0 4":8679,"6P1/PP1PPP1P/RNBQKBNR w KQkq - 0 ":8680,"Q1K":8681,"8e6 <MOVE_SEP> f":8682,"1PB1/R1B":8683,"4Q3 w - - ":8684,"5d5 <MOVE_SEP> f":8685,"8 Black <MOVE_SEP> h6h5\n":8686,"1KBNR w KQkq - ":8687,"2np1n1p/":8688,"1P2k3/":8689,"R2n":8690,"3b1k1/":8691,"2e3 <MOVE_SEP> b":8692,"8 Black <MOVE_SEP> a5a4\n":8693,"8/8/8/5p2/":8694,"1K1R2R":8695,"9 Black <MOVE_SEP> h5h4\n":8696,"2N2NP1/PP2PPBP/R1B":8697,"p3R3/":8698,"3KP1/":8699,"8/Q7/":8700,"4pq2/":8701,"8 b - - 12 7":8702,"B1p/":8703,"4K2R b K - 0 2":8704,"P1N1P/":8705,"2bR":8706,"1K1 w - - 3 2":8707,"4p3/2P1P3/":8708,"8 White <MOVE_SEP> g3g4\n":8709,"pp6/8/":8710,"1ppN":8711,"1ppk/":8712,"8 w - - 8 4":8713,"/P2P4/":8714,"8 b - - 12 6":8715,"4d2 <MOVE_SEP> e":8716,"5e5 <MOVE_SEP> c":8717,"2 White <MOVE_SEP> f1e1\n":8718,"0 White <MOVE_SEP> b2b3\n":8719,"2PP/8/":8720,"1R4K1 b - - 0 2":8721,"2P5/6P1/PP1PPP1P/RNBQKBNR b KQkq - 0 ":8722,"3 Black <MOVE_SEP> h5h4\n":8723,"9 Black <MOVE_SEP> h6h5\n":8724,"3R1K1 b - - 0 1":8725,"K1 b - ":8726,"2 White <MOVE_SEP> g3g4\n":8727,"6 Black <MOVE_SEP> a5a4\n":8728,"Pp4P1/":8729,"1 Black <MOVE_SEP> h6h5\n":8730,"4npp1/":8731,"4g5 <MOVE_SEP> g":8732,"1P3Q2/":8733,"3p3b/":8734,"1P1N1/":8735,"R7 w - - 0 3":8736,"p6R/":8737,"5 White <MOVE_SEP> e4e5\n":8738,"6 Black <MOVE_SEP> h5h4\n":8739,"5 White <MOVE_SEP> g3g4\n":8740,"1N5/":8741,"pPpP":8742,"3 White <MOVE_SEP> f1e2\n":8743,"4Rp2/":8744,"3N4 b - - ":8745,"3P4/5N2/PPP1PPPP/RNBQKB1R b KQkq - 0 ":8746,"2R4K/":8747,"K1 b - - 3 3":8748,"1pn3p1/":8749,"0 White <MOVE_SEP> g3g4\n":8750,"2Q2P1P/":8751,"8h8 <MOVE_SEP> e":8752,"7 Black <MOVE_SEP> h6h5\n":8753,"2P1Pp":8754,"2P1B1P1/":8755,"6R1 w - - 0 3":8756,"4n3/2P":8757,"1KB1R w KQ - ":8758,"1p1n1p1p/":8759,"p2b1ppp/":8760,"K1P5/":8761,"2P5/2P5/":8762,"1g2 <MOVE_SEP> h":8763,"p3p2/":8764,"1 White <MOVE_SEP> g3g4\n":8765,"1pQ/":8766,"7b6 <MOVE_SEP> f":8767,"p4k2/P":8768,"3 White <MOVE_SEP> a4a5\n":8769,"K1 w - - 5 2":8770,"1g2 <MOVE_SEP> a":8771,"4 White <MOVE_SEP> g3g4\n":8772,"6 White <MOVE_SEP> g3g4\n":8773,"bp6/":8774,"8f6 <MOVE_SEP> d":8775,"1p1bp3/":8776,"p1n2/":8777,"6 <MOVE_SEP> e2e4 <MOVE_SEP> d7d":8778,"r1b2k2/":8779,"4b4 <MOVE_SEP> e":8780,"4f6 <MOVE_SEP> e":8781,"1p2nppp/":8782," w KQkq ":8783,"pnp1/":8784,"0 Black <MOVE_SEP> h6h5\n":8785,"3K2R w KQ - 2 1":8786,"3p2b1/":8787,"rnbqk2r/ppppbppp/4pn2/8/":8788,"PPP1/":8789,"1P1B2/":8790,"2n2P2/":8791,"2d2 <MOVE_SEP> b":8792,"PP1/8/":8793,"1 Black <MOVE_SEP> e6e5\n":8794,"7 White <MOVE_SEP> h3h4\n":8795,"PP2BPPP/R":8796,"2b1B":8797,"1pP4p/":8798,"1a1 <MOVE_SEP> d":8799,"R3Q":8800,"2qB":8801,"8 w - - 11 8":8802,"3K1 w - - 0 2":8803,"rnbqk2r/pp1pppbp/":8804,"5k2/1p6/":8805,"2p4K/":8806,"5 Black <MOVE_SEP> a5a4\n":8807,"2p3n1/":8808,"p1B5/":8809,"3/P3P2P/":8810,"PP1P1PPP/RNBQKBNR w KQkq - 0 ":8811,"p1q2pp1/":8812,"7 Black <MOVE_SEP> a7a6\n":8813,"1k3r":8814,"3g3 <MOVE_SEP> f":8815,"3g3 <MOVE_SEP> c":8816,"1Pr5/":8817,"4 Black <MOVE_SEP> h6h5\n":8818,"4p2Q/":8819,"1p2qpp1/":8820,"1R1b":8821,"1r2B":8822,"1RBQKB1R":8823,"pp2pn1p/":8824,"p5/P":8825,"7 Black <MOVE_SEP> h5h4\n":8826,"1PN1PN2/PB":8827,"2P2NP1/":8828,"5f6 <MOVE_SEP> g7f":8829,"1 Black <MOVE_SEP> h5h4\n":8830,"5 Black <MOVE_SEP> h6h5\n":8831,"2p1Pp2/":8832,"r2p4/":8833,"8/7Q/":8834,"7d8 <MOVE_SEP> b":8835,"r2q4/":8836,"5K1 b - - 1 2":8837,"Q1b":8838,"8 Black <MOVE_SEP> f8e7\n":8839,"1p1PP":8840,"Pp1p/":8841,"6 White <MOVE_SEP> b2b3\n":8842,"1p3kp1/":8843,"4d6 <MOVE_SEP> f":8844,"PB3P":8845,"p3P2P/":8846,"1PPPBP/R":8847,"p2pP3/P":8848,"2e2 <MOVE_SEP> b":8849,"p6/8/":8850,"2PPn":8851,"6g6 <MOVE_SEP> f":8852,"QP1/":8853,"rnbqk1nr/pp1pbppp/":8854,"4RK1 w - - 1 2":8855,"2n1b2p/":8856,"1PP3PP/":8857,"rnbqk2r/pp2bppp/4pn2/":8858,"3rB":8859,"3rkb1r/pp":8860,"qp1p/":8861,"2h6\n":8862,"PP1B1PPP/R":8863,"3NP":8864,"4p3/2p5/":8865,"5c7 <MOVE_SEP> e":8866,"8/8 w - - 1 7":8867,"4PPP1/":8868,"2d1 <MOVE_SEP> b":8869,"3 <MOVE_SEP> d1d":8870,"NBQK2R b KQkq - 1 4":8871,"2QNB":8872,"2P4N/":8873,"1B4p1/":8874,"4 Black <MOVE_SEP> d7d6\n":8875,"2N1/P":8876,"8/8/8/2K5/8/":8877,"10 9":8878,"2c7\n":8879,"3q1k2/":8880,"p2pP":8881,"3pp3/8/":8882,"8 w - - 0 2":8883,"7b7 <MOVE_SEP> c":8884,"N1p/":8885,"2/P2Q":8886,"7c2\n":8887,"4g1\n":8888,"K5R":8889,"2b2 <MOVE_SEP> c":8890,"1p1P3P/":8891,"1pp1p2p/":8892,"3R1N":8893,"5b5 <MOVE_SEP> e":8894,"2f2 <MOVE_SEP> b":8895,"8 w - - 5 3":8896,"8/8/8/8/5k2/":8897,"4 White <MOVE_SEP> a4a5\n":8898,"1n1p1/":8899,"6b5 <MOVE_SEP> c":8900,"8 b - - 11 7":8901,"b1d2\n":8902,"2p3P1/P":8903,"7e7 <MOVE_SEP> b":8904,"N2P4/":8905,"1QP1/":8906,"r1b4r/pp":8907,"2 White <MOVE_SEP> c2c3\n":8908,"3N4 w - - ":8909,"3p1b2/8/":8910,"3b4 <MOVE_SEP> c":8911,"2p1n1p1/":8912,"3P1p":8913,"2g6\n":8914,"p5PP/":8915,"2QKB1R b KQ - ":8916,"8 Black <MOVE_SEP> e6e5\n":8917,"N1b":8918,"b2p":8919,"3d3 <MOVE_SEP> g":8920,"8/8/8 w - - 7":8921,"3 White <MOVE_SEP> e2e4\n":8922,"6B1/R":8923,"5PP1/P":8924,"1B/8/":8925,"QKB1R b KQ - ":8926,"6g5 <MOVE_SEP> g":8927,"Q6p/":8928,"2b1r3/":8929,"ppqppp/":8930,"4P1N1/":8931,"6h2\n":8932,"8/6Q1/":8933,"5d5 <MOVE_SEP> e":8934,"8 <MOVE_SEP> a7a":8935,"2 <MOVE_SEP> b1a":8936,"r1bqkb1r/pppp1ppp/2n2n2/":8937,"4p2b/":8938,"p3p2P/":8939,"1 b - - 2 3":8940,"2N3p1/":8941,"1PQ2P2/":8942,"6e5 <MOVE_SEP> a":8943,"QR1K1 w kq - 0 1":8944,"1d1 <MOVE_SEP> h":8945,"6K1 w - - 2 5":8946,"1N5p/":8947,"2/pP":8948,"1P2PPBP/R1B":8949,"3b2 <MOVE_SEP> c":8950,"2 Black <MOVE_SEP> d7d6\n":8951,"5 Black <MOVE_SEP> b8c6\n":8952,"2f4 <MOVE_SEP> c":8953,"2N2PP1/":8954,"2PnP3/":8955,"k7 w - - ":8956,"1p1b/":8957,"7 Black <MOVE_SEP> a5a4\n":8958,"3PP3/P":8959,"2P2P2/PP":8960,"1k2p/":8961,"6d5 <MOVE_SEP> a":8962,"3 b - - 1 4":8963,"p3P1/":8964,"q5P1/":8965,"2B/8/":8966,"3p3r/":8967,"3P2Pp/":8968,"3bB":8969,"3b2 <MOVE_SEP> e":8970,"6 White <MOVE_SEP> a4a5\n":8971,"6n/":8972,"1pbn":8973,"1Br":8974,"1k1b":8975,"2k4r/pp":8976,"3 White <MOVE_SEP> g3g4\n":8977,"3k2r1/":8978,"2QKB1R w KQkq - 1 1":8979,"3p1p2/p":8980,"5PR1/":8981,"P1P2PP1/":8982,"PP1/3RK2R":8983,"0 Black <MOVE_SEP> f8e7\n":8984,"4g4 <MOVE_SEP> e":8985,"1p2p2P/":8986,"8g7 <MOVE_SEP> a":8987,"PPP/R1B1K2R b KQkq - ":8988,"8/8/8 w - - 1 8":8989,"7k w - - ":8990,"8g7 <MOVE_SEP> h":8991,"1PN2NP1/":8992,"1p1P2p1/":8993,"8/7R/8/":8994,"4r1r1/":8995,"1 <MOVE_SEP> a2a":8996,"2QRB":8997,"7 White <MOVE_SEP> a4a5\n":8998,"2PP1/P":8999,"1p1Q4/":9000,"rn1qkb1r/pp2pppp/2p2n2/":9001,"4k1K1/":9002,"5f5 <MOVE_SEP> e":9003,"0 Black <MOVE_SEP> b7b6\n":9004,"1B2P3/":9005,"1K2k3/":9006,"4p/7P/":9007,"3 White <MOVE_SEP> f1e1\n":9008,"2P2PPP/":9009,"4e4 <MOVE_SEP> d":9010,"7R b - - 1 3":9011," w Kkq - 2 1":9012,"p1B1/":9013,"PP2R":9014,"r2qkb1r/pp3ppp/":9015,"7f8 <MOVE_SEP> b":9016,"7c6 <MOVE_SEP> c":9017,"3 <MOVE_SEP> c8g":9018,"N2KBNR":9019,"3pk3/":9020,"8/8/8 b - - 7":9021,"2p3q1/":9022,"8c7 <MOVE_SEP> b":9023,"6 White <MOVE_SEP> f1e2\n":9024,"b/P":9025,"p5pk/":9026,"3BP2P/":9027,"6e5 <MOVE_SEP> h":9028,"1P3p/":9029,"4c2 <MOVE_SEP> e":9030,"2/1PB":9031,"1R6 w - - 0 4":9032,"1p4/8/":9033,"1ppb1/":9034,"8 w - - 8 8":9035,"4/P2P4/":9036,"P1NB":9037,"4R3 b - - 1 4":9038,"q2pp1/":9039,"7e8q\n":9040,"PpP/":9041,"3r1k2/p":9042,"2p2r2/":9043,"2d1 <MOVE_SEP> d":9044,"4P3/5K2/":9045," b - - 3 1":9046,"1r1k4/":9047,"3R4 b - - 0 5":9048,"r1k5/":9049,"5R2/P":9050,"2/PPP3PP/R":9051,"2KR2NR":9052,"k7/8/8/":9053,"5K2 w - - 2 4":9054,"2R1P3/":9055,"4f5 <MOVE_SEP> h":9056,"2/2P3P1/":9057,"2 b Q - ":9058," Black <MOVE_SEP> f8c5\n":9059,"3c3 <MOVE_SEP> d":9060,"pb3pp1/":9061,"r1bqk2r/pp2ppbp/":9062,"1KBR":9063,"5c6 <MOVE_SEP> b7c":9064,"BP/RNBQ1RK1 w kq - ":9065,"2N2NP1/PP2PP1P/R1B":9066,"7e8 <MOVE_SEP> b":9067,"1p3q2/":9068,"2d3 <MOVE_SEP> b":9069,"3g5 <MOVE_SEP> d":9070,"p3B3/":9071,"Q1p5/":9072,"1 <MOVE_SEP> a3a":9073,"8/3N4/":9074,"1p1/R":9075,"rnk1/":9076,"2R/8/":9077,"6R1 b - - 0 3":9078,"1p4pP/":9079,"r3B":9080,"7g7 <MOVE_SEP> f":9081,"3g2 <MOVE_SEP> h":9082,"5R2 w - - 1 3":9083,"2P2Q2/":9084,"3r1bk1/":9085,"7d7 <MOVE_SEP> b":9086,"rnbqkb1r/pppppppp/5n2/8/2PP4/8/PP2PPPP/RNBQKBNR b KQkq - 0 ":9087,"q4p2/":9088,"p7/P1p":9089,"2BK/":9090,"8/8/8/2k5/8/":9091,"8/8/b":9092,"2/1P1Q":9093,"1p2qppp/":9094,"Q3B":9095,"2q1r":9096,"7 White <MOVE_SEP> g3g4\n":9097,"1KBNR b KQkq - 0 ":9098,"rnbqkbnr/ppp1pppp/8/3p4/3P4/5N2/PPP1PPPP/R":9099,"PP3P2/R":9100,"3n2pp/":9101,"8c8 <MOVE_SEP> h":9102,"5e5 <MOVE_SEP> f":9103,"4Pb2/":9104,"r4rk1/pp1b":9105,"p1k1/":9106,"3n4 w - - ":9107,"1K2B":9108,"4K3 w - - 0 5":9109,"6K1/6P1/":9110,"6 Black <MOVE_SEP> b7b6\n":9111,"5f3 <MOVE_SEP> e":9112,"1NpP":9113,"2K1P3/":9114,"6P1/5PK1/":9115,"5e5 <MOVE_SEP> d":9116,"ppP/":9117,"4 Black <MOVE_SEP> f8g7\n":9118,"7g3\n":9119,"4 <MOVE_SEP> g6h":9120,"8 w - - 13 7":9121,"r1bqkb1r/pp1ppp1p/":9122,"3 <MOVE_SEP> h5g":9123,"9 White <MOVE_SEP> g3g4\n":9124,"5f5 <MOVE_SEP> d":9125,"1P1/5P2/":9126,"4p3/2PP4/":9127,"6a1\n":9128,"5 b - - 0 3":9129,"3/2P3P1/":9130,"6 <MOVE_SEP> d2d4 <MOVE_SEP> c":9131,"2g3 <MOVE_SEP> e":9132,"1e3 <MOVE_SEP> e":9133,"bp2p3/":9134,"3b2 <MOVE_SEP> d":9135,"1kp2/":9136,"2/1P6/8/":9137,"r4k1r/pp":9138,"6 <MOVE_SEP> h5g":9139,"n5/":9140,"4BP":9141,"7b b - - ":9142,"P4b":9143,"1bQ":9144,"1rk/":9145,"1P3PBP/R1B":9146,"2e1q\n":9147,"p2p1p1p/":9148,"1a1 <MOVE_SEP> c":9149,"n1P/":9150,"2p4k/":9151,"2b2/8/":9152,"3n1k2/":9153,"3P4/P1P":9154,"r2q3r/":9155,"8/K7/8/":9156,"8 <MOVE_SEP> b1d":9157,"13 5":9158,"4 White <MOVE_SEP> c2c3\n":9159,"NBQKB1R w KQkq - 0 3 White <MOVE_SEP> d2d4\n":9160,"1P/PP2BPP1/R":9161,"2b2 <MOVE_SEP> b":9162,"PPP2P1P/R":9163,"pN6/":9164,"BP/RNB2R":9165,"10 3":9166,"p5P/":9167,"1B3P1P/":9168,"3KB1R w KQ - 1 1":9169,"3 Black <MOVE_SEP> g6g5\n":9170,"2p1P1/":9171,"8/8/4B3/":9172,"1r1qkb1r/":9173,"1ppb/":9174,"11 9":9175,"p3bp1p/":9176,"14 7":9177,"8 White <MOVE_SEP> a2a3\n":9178,"1p2Q3/":9179,"1P1P2P1/P":9180,"1k4p1/":9181,"2n1pp2/":9182,"rnbqk1nr/ppppbppp/":9183,"PPP1/R":9184,"3K1P1P/":9185,"4k3/P":9186,"3PP3/8/PPP2PPP/RNBQKBNR w KQkq - 1 3":9187,"ppp5/":9188,"3 White <MOVE_SEP> a2a3\n":9189,"8/7P/8/":9190,"pP2P/":9191,"6g4 <MOVE_SEP> f":9192,"1R5K/":9193,"3b2pp/":9194,"7b w - - ":9195,"3e3 <MOVE_SEP> g":9196,"4e5 <MOVE_SEP> h":9197,"1c2 <MOVE_SEP> g":9198,"2P1B/":9199,"1p3p2/8/":9200,"5 Black <MOVE_SEP> e6e5\n":9201,"9 White <MOVE_SEP> a4a5\n":9202,"1Qb":9203,"r1bb":9204,"2N1BN1P/":9205,"n2P":9206,"2pn2/":9207,"2p3Pp/":9208,"8 w - - 7 9":9209,"1 Black <MOVE_SEP> g6g5\n":9210,"6 White <MOVE_SEP> e4e5\n":9211,"1b4pp/":9212,"1n1N":9213,"1KB1R w KQkq - 1 1":9214,"N1/P":9215,"0 Black <MOVE_SEP> g6g5\n":9216,"rnbqkbnr/ppp2ppp/4p3/3p4/":9217,"7b7 <MOVE_SEP> b":9218,"1P3P1P/R1B":9219,"PP3PB1/R":9220,"1q3pp1/":9221,"8/8/8/7k/":9222,"p1p2p/":9223,"1n4P1/":9224,"2p1/7p/":9225,"3P2/P":9226,"3f3 <MOVE_SEP> g":9227,"4 White <MOVE_SEP> f1e1\n":9228,"5RK1 b - - 2 2":9229,"p5q1/":9230,"4P3/6P1/":9231," White <MOVE_SEP> b1e1\n":9232,"1K2R w KQkq - 0 ":9233,"9 Black <MOVE_SEP> a5a4\n":9234,"3K1P/":9235,"5f5 <MOVE_SEP> c":9236,"2 Black <MOVE_SEP> e6e5\n":9237,"8/1p5p/":9238,"1B3PPP/R":9239," Black <MOVE_SEP> g8e7\n":9240,"2P3R1/":9241,"1n1/8/":9242,"3 0 2":9243,"1p3p1P/":9244,"3RK3/":9245,"p4k1p/":9246,"8/8 b - - 2 6":9247,"3 Black <MOVE_SEP> e6e5\n":9248,"2Q/8/":9249,"8e7 <MOVE_SEP> h":9250,"4g3 <MOVE_SEP> g":9251,"2pr4/":9252,"R1BQ1R":9253,"8/8/8 b - - 0 5":9254,"bnp1/":9255,"8d6 <MOVE_SEP> e":9256,"5g8\n":9257,"1r3k1r/":9258,"B3R":9259,"8 b - - 5 9":9260,"5P2/8/8/":9261,"5N2/PPP2PPP/RNBQKB1R b KQkq - 0 ":9262,"8g8 <MOVE_SEP> a2a":9263,"r7/6k1/":9264,"1pp1/7p/":9265,"r1bqkbnr/pp2pppp/":9266,"1K w - - 1 3":9267," Black <MOVE_SEP> d8b6\n":9268,"3f5 <MOVE_SEP> e":9269,"1pnpp":9270,"pB2/":9271,"6 Black <MOVE_SEP> e6e5\n":9272,"8/8 b - - 1 6":9273,"3Q1B":9274,"4ppb1/":9275,"5h1\n":9276,"P1/PP2Q":9277,"2p5/2B":9278,"1P1r4/":9279,"3c8\n":9280,"pnpppp/":9281,"pb2q":9282,"1rb5/":9283,"4 Black <MOVE_SEP> e6e5\n":9284,"8/8/2r":9285,"2r2/8/":9286,"4f6 <MOVE_SEP> d":9287,"1b2 <MOVE_SEP> g":9288,"P4R2/":9289,"3b4 <MOVE_SEP> d":9290,"8 b - - 6 9":9291,"3e5 <MOVE_SEP> e":9292,"3r1b":9293,"1pp1P3/":9294,"2 <MOVE_SEP> b1c":9295,"3PP2P/":9296,"2QK2R w KQ - 1 1":9297,"r1bqk2r/pp1pbppp/":9298,"3pppp/":9299,"2b6\n":9300,"P1/P4P2/":9301,"1R1R2K1 w - - ":9302,"2/1P5p/":9303,"5 Black <MOVE_SEP> g8f6\n":9304,"1k2K3/":9305,"2r1/8/":9306,"5P2/4K3/":9307,"6c6 <MOVE_SEP> d":9308,"1P2PP1P/":9309,"6k1/8/8/8/":9310,"1p4PP/":9311,"2/p3p3/":9312,"1p3p1k/":9313,"rnbqkb1r/pp1p1ppp/2p1pn2/8/":9314,"2P3N1/":9315,"1pB1/":9316,"1K3p2/":9317,"2p/6p1/":9318,"4P3/3P4/":9319,"3Q4/P":9320,"1pP1p3/":9321,"8/p1k":9322,"8 White <MOVE_SEP> a4a5\n":9323,"P3k":9324,"2nr/pp":9325,"7c8 <MOVE_SEP> g":9326,"2P3Q1/":9327,"3rp3/":9328,"3Q1K2/":9329,"2e1 <MOVE_SEP> e":9330,"8c6 <MOVE_SEP> e":9331,"2N2NP1/PP3P":9332,"2P2q":9333,"3qp/":9334,"4e6 <MOVE_SEP> d":9335,"1pP4P/":9336,"2 w - - 3 4":9337,"5f3 <MOVE_SEP> g":9338,"5 <MOVE_SEP> f1c":9339,"r3kbr1/":9340,"7g7 <MOVE_SEP> e":9341,"3 Black <MOVE_SEP> f8e8\n":9342,"QKB1R w KQkq - 1 8":9343,"1b1n1pp1/":9344,"2pP2p1/":9345,"9 Black <MOVE_SEP> e6e5\n":9346,"QKB1R b KQkq - 3 3":9347,"1P4R":9348,"3Pq":9349,"2Pp4/3P4/":9350,"B/8/":9351,"7B b - - ":9352,"bQ":9353,"8/b7/":9354,"4B1R":9355,"4P3/PPP2PPP/RNBQKBNR b KQkq - 0 ":9356,"8/8 b - - 2 5":9357,"4 b - - 1 3":9358,"6K1 b - - 2 5":9359,"1 White <MOVE_SEP> b2b3\n":9360,"7P/PP":9361,"2K5 b - - 0 3":9362,"rnbqkbnr/pp1ppppp/2p5/8/3PP3/8/PPP2PPP/RNBQKBNR b KQkq - 0 ":9363,"4PN2/PP3PPP/RNBQKB1R b KQkq - 0 ":9364,"n3/8/":9365,"5P1b/":9366,"1 Black <MOVE_SEP> b7b6\n":9367,"NBQK2R b KQkq - 1 5":9368,"p1PN":9369,"7k/5p2/":9370,"4Pp1P/":9371,"5rk1/6p1/":9372,"5R1K b - - 0 3":9373,"1K1 b - - 3 2":9374,"6g6 <MOVE_SEP> c":9375,"3Pp2P/":9376,"pp/2p5/":9377,"2g2 <MOVE_SEP> e":9378,"2 Black <MOVE_SEP> g6g5\n":9379,"P2pP":9380,"5p1p/7P/":9381,"8/8/4n3/":9382,"4g4 <MOVE_SEP> d":9383,"2k5/8/8/8/":9384,"r4pp1/":9385,"1Q/8/":9386,"5NP1/PP2PP1P/RNBQKB1R b KQkq - 0 ":9387,"3d4 <MOVE_SEP> a":9388,"1B3p2/":9389," Black <MOVE_SEP> c8d7\n":9390,"3e4 <MOVE_SEP> a":9391,"3 Black <MOVE_SEP> f8g7\n":9392,"pp2pp/":9393,"1d3 <MOVE_SEP> e":9394,"8h8 <MOVE_SEP> d":9395,"7 Black <MOVE_SEP> g6g5\n":9396,"3Pp1P1/":9397,"4rq":9398,"BP/RN1Q1R":9399,"n1p2n":9400,"7R w - - 0 2":9401,"1PR/":9402,"3RP3/":9403,"6c1\n":9404,"1p1n1p2/":9405,"4c5 <MOVE_SEP> a":9406,"p1n1p/":9407,"QPP":9408,"8/8/2P5/":9409,"1f5\n":9410,"7b3\n":9411,"QR1K1 b kq - 0 1":9412,"p2Q4/":9413," Black <MOVE_SEP> d5d4\n":9414,"4pp2/p":9415,"3bN":9416,"4 <MOVE_SEP> b6a":9417,"/P3P3/":9418,"3 Black <MOVE_SEP> d7d6\n":9419,"2KR3R b - - 0 1":9420,"1PN4P/":9421,"1pq2/":9422,"b2q":9423,"8/8/q":9424,"9 White <MOVE_SEP> b2b3\n":9425,"4P1P/R":9426,"2PP1N2/PP":9427,"3nP":9428,"2QK2R b KQkq - 1 1":9429,"5K2 w - - 1 5":9430,"4 Black <MOVE_SEP> g6g5\n":9431,"8d6 <MOVE_SEP> c":9432,"1KBNR w KQkq - 0 ":9433,"8h8 <MOVE_SEP> h":9434,"1p1pbppp/":9435,"2Q3K1/":9436,"4 Black <MOVE_SEP> f8e8\n":9437,"3r1/8/":9438,"R3b":9439,"1p3P1/":9440,"1P1R/":9441,"2KR1BNR":9442,"2c2 <MOVE_SEP> b":9443,"1p1P3p/":9444,"6e4 <MOVE_SEP> e":9445,"5kb1/":9446,"1P2BPP1/":9447,"5K2 b - - 2 4":9448,"pp1N":9449,"1p1bbpp1/":9450,"3KB3/":9451,"7P/P7/":9452,"7g7 <MOVE_SEP> d":9453,"PP2PN2/":9454,"1e2 <MOVE_SEP> h":9455,"8g8 <MOVE_SEP> h2h":9456,"4R3 b - - 0 5":9457,"5N2/PPP1PPPP/RN1QKB1R b KQkq - ":9458,"q1pp/":9459,"1bk/":9460,"3pr":9461,"2 w - - 0 1":9462,"6 <MOVE_SEP> b1c3 <MOVE_SEP> e7e":9463,"n1pP":9464,"4d2 <MOVE_SEP> c":9465,"8/1p2k":9466,"8/8/3B4/":9467,"1b1k":9468,"3p2P1/P":9469,"1BP/R":9470,"2n5 w - - ":9471,"5d7 <MOVE_SEP> e":9472,"2 w - - 4 3":9473,"PPP/R1BQK2R w KQkq - ":9474,"1r3P":9475,"1P1P1P/":9476,"2P2PP/":9477,"8/8/7k/8/":9478,"5e7 <MOVE_SEP> d":9479,"1R3RK1 b - - 0 2":9480,"8/8/8/K7/":9481,"2P5/2N":9482,"8g3\n":9483,"1p6/p7/":9484,"6 <MOVE_SEP> g2h":9485,"b1P1/":9486,"3b1n1p/":9487,"7p/6pP/":9488,"2Q1RK1 b kq - 0 1":9489,"8/8/5pk1/":9490,"4p2B/":9491,"8/8/3n4/":9492,"2KR1R":9493,"5 Black <MOVE_SEP> g6g5\n":9494,"4R1K1 w - - 0 4":9495,"10 1":9496,"1B1p/":9497,"2g2 <MOVE_SEP> f":9498,"3/P2P4/":9499,"1p2P1P1/":9500,"P3Q3/":9501,"K1/8/":9502,"4 b - - 1 2":9503,"p1Pn":9504,"2QK2R w KQkq - ":9505,"PPP/RNB2R":9506,"2PPB":9507,"2P5/1P6/":9508,"2g3 <MOVE_SEP> c":9509,"14 8":9510,"1p1n2/":9511,"QKB1R w KQkq - 2 5":9512,"b6P/":9513,"PPQB":9514,"6 <MOVE_SEP> g1f3 <MOVE_SEP> g8f":9515,"P2K4/":9516,"8/p2k":9517,"8q <MOVE_SEP> a":9518,"Pp2p":9519,"8/8/8 b - - 2 7":9520,"7g6 <MOVE_SEP> e":9521,"7 White <MOVE_SEP> b2b3\n":9522,"rnbqkbnr/pppp1ppp/4p3/8/3PP3/8/PPP2PPP/RNBQKBNR b KQkq - 0 ":9523,"NP1P":9524,"1e3 <MOVE_SEP> f":9525,"3a8\n":9526,"rnbqk1nr/ppp1bppp/4p3/":9527,"4pk1p/":9528,"2PpN3/":9529,"2 White <MOVE_SEP> b2b3\n":9530,"1N2P3/":9531,"3Q2K1 w - - ":9532,"7 Black <MOVE_SEP> e6e5\n":9533,"P2pP3/":9534,"5NR":9535,"5N2/PPPN1PPP/R1B":9536,"B3p":9537,"2nr":9538,"3b2K1/":9539,"2QP4/":9540,"4c3 <MOVE_SEP> b":9541,"PK6/":9542,"4p1r1/":9543,"4 w - - 1 3":9544,"pB1/":9545,"K1 b kq - 4 1":9546,"2QKBNR":9547,"1P1p4/P":9548,"PPP/RNBQ1RK1 b kq - ":9549,"1b2 <MOVE_SEP> b":9550,"14 6":9551,"1K3B":9552,"1PPp4/":9553,"2nR":9554,"BP6/":9555,"p1q1bppp/":9556,"r1bqk2r/1pp":9557,"2K1R2R":9558,"1/P1P5/":9559,"p4p2/8/":9560,"5 Black <MOVE_SEP> e7e6\n":9561,"1p3PP1/":9562,"1b3 <MOVE_SEP> d":9563,"8/8/8/8 w - - 5":9564,"PP1NQ":9565,"NpP":9566,"2r2bk1/":9567,"7K/8/8 w - - ":9568,"r1bqkbnr/pp1ppppp/2n5/2p5/2P5/":9569,"n1/8/":9570,"2pK4/":9571," w K - 3 1":9572,"q2B":9573,"2pbp3/":9574,"2P1p2P/":9575,"3 w - - 0 5":9576,"4pp2/8/":9577,"2N2N1P/PPPP1PP1/R1B":9578,"p1nq":9579,"6 Black <MOVE_SEP> f8e8\n":9580,"1R3RK1 w - - 0 2":9581,"ppnppp/":9582,"2R2K1 b - - 0 1":9583,"7c7 <MOVE_SEP> b":9584,"7 Black <MOVE_SEP> b7b6\n":9585,"2N5/PPP2PPP/R1BQKBNR b KQkq - 0 ":9586,"1P2BPP1/R":9587,"PP3PPP/RNBQKBNR b KQkq - 0 ":9588,"1n1r":9589,"2q2P2/":9590,"7d8q\n":9591,"2 b - - 1 5":9592,"2B2B":9593,"6k1/1R6/":9594,"2P1pP":9595,"2 White <MOVE_SEP> g4g5\n":9596,"1 White <MOVE_SEP> a3a4\n":9597,"3R2K1 b - - 0 4":9598,"2KR3R b - - 0 2":9599,"2p1p3/2P1P3/":9600,"P1Q5/":9601,"1P3r2/":9602,"5pr1/":9603,"4rp/":9604,"B6p/":9605,"1p2P2/":9606,"2b3 <MOVE_SEP> f":9607,"p1B/":9608,"2g2 <MOVE_SEP> d":9609,"3R1K1 w - - 1 2":9610,"0 White <MOVE_SEP> g4g5\n":9611,"2QP1/":9612,"7g6 <MOVE_SEP> f":9613,"6R1 w - - 0 4":9614," b KQq - 0 1":9615," White <MOVE_SEP> b2b4\n":9616,"7 <MOVE_SEP> g7h":9617,"1PP1/R4R":9618,"p4P1/":9619,"2P2/p":9620,"7 Black <MOVE_SEP> f8e7\n":9621,"6nk/":9622,"PP2NPPP/R":9623,"8/8/8/8 b - - 5":9624,"3P2N1/":9625,"3RK1R":9626,"8f6 <MOVE_SEP> e":9627,"1r1q2k1/":9628,"b2/P":9629,"k7 b - - ":9630,"5e3 <MOVE_SEP> d":9631,"8 w - - 12 7":9632,"6 Black <MOVE_SEP> g6g5\n":9633,"1P1QB":9634,"1qP/":9635,"7k/7P/":9636,"5 White <MOVE_SEP> g1f3\n":9637,"k2r4/":9638,"1P2n3/":9639,"6R1 b - - 0 4":9640,"2P4r/":9641,"8/8/8/8/3k4/":9642,"8 w - - 13 6":9643,"8 b - - 11 5":9644,"6K1 w - - 1 2":9645,"8/1p4p1/":9646,"2R5 w - - 1 4":9647,"8 Black <MOVE_SEP> a7a6\n":9648,"2 b - - 3 4":9649,"0 White <MOVE_SEP> a3a4\n":9650,"4R1K1 b - - 2 3":9651,"6B1/P":9652,"7d6 <MOVE_SEP> b":9653,"1QP5/":9654,"K1 w - - 1 4":9655,"5K2/8 b - - 0 5":9656,"8 w - - 10 8":9657,"r1bqkb1r/pppp1ppp/":9658,"1 Black <MOVE_SEP> f8e7\n":9659,"R3KB":9660,"1p2P1p1/":9661,"3P2pP/":9662,"5P1K/8/":9663,"6K1/8 w - - 0 5":9664,"rnbqkbnr/pp3ppp/2p1p3/":9665,"3p1b1p/":9666,"1q1p4/":9667,"5p1B/":9668,"2g7\n":9669,"R5K1/":9670,"q2N":9671,"9 Black <MOVE_SEP> g6g5\n":9672,"2p5/3p4/":9673,"2g3 <MOVE_SEP> f":9674,"1 <MOVE_SEP> h1h":9675,"5RK1 b - - 2 3":9676,"r1bqr1k1/pp":9677,"3N2K1/":9678,"2d1q\n":9679,"4 Black <MOVE_SEP> c5d4\n":9680,"1pnb":9681,"4 White <MOVE_SEP> g4g5\n":9682,"QKBNR b KQkq - 2 3":9683,"3Qp3/":9684,"8g2\n":9685,"Q4P2/":9686,"2ppP":9687,"6b1/P":9688,"1nrk1/":9689,"NN":9690,"3R1K1 w - - 0 1":9691,"5 Black <MOVE_SEP> f8g7\n":9692,"R4RK1 b - - 0 2":9693,"6 <MOVE_SEP> a6b":9694,"1P1BQ":9695,"RNB":9696,"1P1P1P/R":9697,"2Pp2/":9698,"3r1q":9699,"5f6 <MOVE_SEP> h":9700,"3 <MOVE_SEP> b8d":9701,"4RRK1 b - - 0 2":9702,"P3p/":9703,"0 White <MOVE_SEP> f1e2\n":9704,"2pb1n2/":9705,"1npp":9706,"4KP":9707,"5 White <MOVE_SEP> f1e1\n":9708,"8 White <MOVE_SEP> f1e1\n":9709,"n1pP4/":9710,"1N6 b - - ":9711,"8/pk":9712,"2N1BN2/PP":9713,"r1b2k1r/pp":9714,"7f7 <MOVE_SEP> b":9715,"1Ppp":9716,"5K2 w - - 0 6":9717,"1ppk":9718,"1p3P1p/":9719,"b2B":9720,"1K4k1/":9721,"1pn1/":9722,"n7/8/":9723,"rk/":9724,"1P1P2/":9725,"2r2B":9726,"3/P2B":9727,"2R3K1 b - - 1 3":9728,"R3p":9729,"1a1 <MOVE_SEP> g":9730,"3b4 <MOVE_SEP> f":9731,"7B w - - ":9732,"/P3P":9733,"8 w - - 12 6":9734,"r2r3k/":9735,"r1bq1rk1/pp3ppp/":9736,"b2P/":9737,"1R3N":9738,"4d5 <MOVE_SEP> a":9739,"rnbqkbnr/1pp2ppp/":9740,"6 White <MOVE_SEP> f1g2\n":9741,"5R2 b - - 0 5":9742,"pP1N":9743,"8 b - - 1 10":9744,"6f4 <MOVE_SEP> e":9745,"8 <MOVE_SEP> a6a":9746,"p1ppbppp/":9747,"1p3P2/1P":9748,"8 b - - 9 8":9749,"4h8\n":9750,"1P3P2/R1B":9751,"4 <MOVE_SEP> d5c":9752,"/P2B":9753,"3b2 <MOVE_SEP> f":9754,"1K1R4/":9755,"0 Black <MOVE_SEP> b7b5\n":9756,"6 White <MOVE_SEP> a3a4\n":9757,"pQ6/":9758,"5r/pp":9759,"5P2/7P/":9760,"1R b - - 2 2":9761,"rnbqkb1r/ppp2ppp/4pn2/3p4/2PP4/":9762,"2p3PP/":9763," White <MOVE_SEP> c1b2\n":9764,"4N1k1/":9765,"6K1/8 w - - 0 4":9766,"8/P7/8/":9767,"1q <MOVE_SEP> a":9768,"2N5 b - - ":9769,"1a1 <MOVE_SEP> b":9770,"5 Black <MOVE_SEP> f8e8\n":9771,"rbb":9772,"2rp1/":9773,"7K/8/8/":9774,"5Q2/P":9775,"3p4/3P1B2/8/PPP1PPPP/RN1":9776,"2p4R/":9777,"1P1/P7/":9778,"2N2p2/":9779," b KQk - 1 1":9780,"b1Q/":9781,"4R1K1 w - - 2 3":9782,"B5p1/":9783,"8/B7/":9784,"1n6 w - - ":9785,"2B1/R":9786,"8/7B/":9787,"8 Black <MOVE_SEP> g6g5\n":9788,"p1Q/":9789,"5e4 <MOVE_SEP> h":9790,"b1e4\n":9791,"kp2/":9792,"bn1/":9793,"8/8/2R":9794,"1r3b":9795,"4c6 <MOVE_SEP> d":9796,"5b2/P":9797,"4P3/PP3PPP/RNBQKBNR b KQkq - 0 ":9798," w - - 5 2":9799,"1R1K1 b - - 0 1":9800,"3p2/1P":9801,"2Pp1p":9802,"1nbpp1/":9803,"4 White <MOVE_SEP> a3a4\n":9804,"1k3p2/":9805,"6c4 <MOVE_SEP> e":9806,"2p1pnp1/":9807,"pp2pp1p/":9808,"3b3 <MOVE_SEP> e":9809,"P4k2/":9810,"1BP2/":9811,"4p1bp/":9812,"1PPP1PP1/R1B":9813,"2QKB1R b KQ - 0 1":9814,"b3/P":9815,"7b8 <MOVE_SEP> e":9816,"r2qrbk1/":9817,"p2nbpp1/":9818,"K1 b - - 5 2":9819,"3 White <MOVE_SEP> g4g5\n":9820,"p3p3/2P":9821,"2N2NP1/PP1PPPBP/R1B":9822,"6p1/p7/":9823,"6f1\n":9824,"pppp/1p3n2/8/":9825,"1PpP4/":9826,"1h1 <MOVE_SEP> e":9827,"7 White <MOVE_SEP> g4g5\n":9828,"P4r":9829,"rn1k":9830,"3k1P2/":9831,"8 White <MOVE_SEP> f1e2\n":9832,"8 White <MOVE_SEP> f4f5\n":9833,"1R4K1 w - - 0 2":9834,"3Rp3/":9835,"PP1P1PPP/RNBQKBNR w KQkq - 1 3":9836,"15 7":9837,"Q5p1/":9838,"np2/":9839,"1N6 w - - ":9840,"p5kp/":9841,"3K2R w KQ - 1 2":9842,"4BN2/PP":9843,"9 Black <MOVE_SEP> f8e8\n":9844,"6f5 <MOVE_SEP> h":9845,"3n4/3P4/":9846,"BP1P/R":9847,"1 Black <MOVE_SEP> a6a5\n":9848," b Kkq - 2 1":9849,"0 Black <MOVE_SEP> a6a5\n":9850,"Q2/8/":9851,"1rb1r1k1/":9852,"1P3PBP/":9853,"2N1PN2/PP2BPPP/R1B":9854,"1P2b3/":9855,"4kP2/":9856,"8/8/8/8 b - - 4":9857,"2e1 <MOVE_SEP> b":9858,"1p1p2pp/":9859," Black <MOVE_SEP> b1a1\n":9860," White <MOVE_SEP> c4d5\n":9861,"PP2PPBP/R":9862,"2 White <MOVE_SEP> a3a4\n":9863,"1q3P2/":9864,"6f7 <MOVE_SEP> h":9865,"5p1P/8/":9866,"6k1/5r2/":9867,"5f4 <MOVE_SEP> h":9868,"8/8/8 b - - 2 6":9869,"3P1BP1/":9870,"P5B1/":9871,"2P1p1p1/":9872,"1r1N":9873,"4rk/":9874,"3r4/5k2/":9875,"8 b - - 12 8":9876,"7 White <MOVE_SEP> e4e5\n":9877,"2p1bpp1/":9878,"2n1N":9879,"5PN1/":9880,"1P2BPP1/R1B":9881,"5p2/5K2/":9882,"4pN2/":9883,"2c3 <MOVE_SEP> b":9884,"5N2/PPP2PPP/RNBQKB1R w KQkq - 0 ":9885,"9 Black <MOVE_SEP> b7b6\n":9886,"5RK1 w - - 0 4":9887,"N6P/":9888,"3P1P2/P":9889,"2 b - - 4 3":9890,"5 Black <MOVE_SEP> a6a5\n":9891,"5R1K w - - 0 3":9892,"3nk3/":9893,"B2Q":9894,"8/5pp1/":9895,"R7 w - - 0 4":9896," Black <MOVE_SEP> b1c1\n":9897,"5NP1/PP2PP1P/R":9898,"4P/R1B":9899,"1p2n/":9900,"2B2p2/":9901,"5n2/4p3/":9902,"1PP1P3/":9903,"5PQ1/":9904,"1P4Pp/":9905,"7b7 <MOVE_SEP> g":9906,"3c5 <MOVE_SEP> e":9907,"0 White <MOVE_SEP> b2b4\n":9908,"8/8/4b":9909,"3pK3/":9910,"p3pppp/":9911,"p1p1P3/":9912,"5P1P/8/":9913,"3P4/3P4/":9914,"P1/PP1B":9915,"1KB1R b KQ - ":9916,"8/8/5b2/":9917,"5 Black <MOVE_SEP> d7d6\n":9918,"2R2K1 w - - 1 2":9919,"0 White <MOVE_SEP> e4e5\n":9920,"1 White <MOVE_SEP> b2b4\n":9921,"8/8/4K3 b - - ":9922,"2bpP":9923,"8 White <MOVE_SEP> g4g5\n":9924,"2p5/4P3/2N2N2/PPPP1PPP/R1B":9925,"3PN/":9926,"1PPK":9927,"r3P3/":9928,"4kp1p/":9929,"7f6 <MOVE_SEP> h":9930,"3 White <MOVE_SEP> c2c3\n":9931,"b1p5/":9932,"rnb1k1nr/":9933,"3n4 b - - ":9934,"7g6 <MOVE_SEP> c":9935,"8/1p1k":9936,"5 White <MOVE_SEP> a3a4\n":9937,"pp5P/":9938,"1r3q":9939,"3d2 <MOVE_SEP> a":9940,"6 White <MOVE_SEP> g4g5\n":9941,"2RR2K1 w - - 0 2":9942," White <MOVE_SEP> g1e2\n":9943,"1 16":9944,"r1bqk2r/pp1nbppp/":9945,"4g4 <MOVE_SEP> g":9946,"P3PN":9947,"1R4R":9948,"3b1/8/":9949,"PP/5P2/":9950,"9 White <MOVE_SEP> a2a3\n":9951,"0 Black <MOVE_SEP> a7a5\n":9952,"R5K1 b - - 0 2":9953,"10 2":9954,"2Pb/":9955,"8/8/2B5/":9956,"2nQ":9957,"1h1 <MOVE_SEP> d":9958,"2KR3R w - - 0 1":9959,"2n5 b - - ":9960,"4p3/2PPP3/":9961,"7b8 <MOVE_SEP> d":9962,"5B2/p":9963," w K - 2 2":9964,"2p2P1p/":9965,"R3N":9966,"1B3N":9967,"rnbqkb1r/pp3pp1/":9968,"B3P3/":9969,"3b1n":9970,"2KB4/":9971," Black <MOVE_SEP> f6e4\n":9972,"6c4 <MOVE_SEP> d":9973,"3c5 <MOVE_SEP> d":9974,"0 Black <MOVE_SEP> g8h8\n":9975,"1 White <MOVE_SEP> g4g5\n":9976,"0 White <MOVE_SEP> f4f5\n":9977,"5k2/R7/":9978,"NBQKB1R w KQkq - 0 3 White <MOVE_SEP> b1c3\n":9979,"3R2":9980,"2k3K1/":9981,"2RR2K1 b - - 0 2":9982,"8 Black <MOVE_SEP> f8e8\n":9983,"5d3 <MOVE_SEP> f":9984,"8/2r3k1/":9985,"1p1/2p5/":9986,"6k1/1b":9987,"N1QK2R w KQkq - 0 ":9988,"7 White <MOVE_SEP> a3a4\n":9989,"3pp3/2P5/":9990," w - - 3 1":9991,"1B4k1/":9992,"8 White <MOVE_SEP> b2b3\n":9993,"15 8":9994,"rP/":9995,"2PN/":9996,"P2P1/P":9997," b - - 5 2":9998,"1P/5PP1/":9999,"5p1b/":10000,"5d7 <MOVE_SEP> c":10001,"1P1NP1/":10002,"2 White <MOVE_SEP> c1f4\n":10003,"r1bqk2r/pppp1ppp/":10004,"0 Black <MOVE_SEP> b5b4\n":10005,"8/8/2b":10006,"1bpP":10007,"7c5 <MOVE_SEP> f":10008,"K1 b kq - 1 2":10009,"rnbqkbnr/pp1ppp1p/6p1/2p5/2P5/":10010,"5g4 <MOVE_SEP> g":10011,"9 White <MOVE_SEP> f1e1\n":10012,"9 Black <MOVE_SEP> f8e7\n":10013,"9 White <MOVE_SEP> g4g5\n":10014,"rnbqkbnr/pp1ppppp/8/2p5/4P3/5N2/PPPP1PPP/R":10015,"4 Black <MOVE_SEP> a6a5\n":10016,"2b2 <MOVE_SEP> g":10017,"8h8 <MOVE_SEP> g":10018,"1h1 <MOVE_SEP> h":10019,"2PP4/2N5/PP2PPPP/R1B":10020,"6k1/3R4/":10021,"6p1/6Pp/":10022,"5q2/p":10023,"QR1K1 w - - ":10024,"P1/P2PP":10025,"p4kp1/":10026,"2P1PP2/":10027,"3 Black <MOVE_SEP> a6a5\n":10028,"2n1bn2/":10029,"8/p2r":10030,"Q3p":10031,"12 9":10032,"n7 w - - ":10033,"4 White <MOVE_SEP> f4f5\n":10034,"7k b - - ":10035,"2b/8/":10036,"p2bp3/":10037,"2n/8/":10038,"2/P3P":10039,"2/P5p1/":10040,"6 <MOVE_SEP> b4b":10041,"3 White <MOVE_SEP> a3a4\n":10042,"2 w - - 1 5":10043,"6 White <MOVE_SEP> f1e1\n":10044,"P1p1p":10045,"8 b - - 1 2":10046,"p1p1pn2/":10047,"3 White <MOVE_SEP> f4f5\n":10048,"6 <MOVE_SEP> e1g1 <MOVE_SEP> f":10049,"QNR":10050,"PP1PB":10051,"1q3rk1/":10052,"2 White <MOVE_SEP> f4f5\n":10053,"1 White <MOVE_SEP> f4f5\n":10054,"2N5 w - - ":10055,"R5K1 w - - 0 3":10056,"4d4 <MOVE_SEP> c":10057,"1P1PN":10058,"1g7\n":10059,"5e3 <MOVE_SEP> c":10060,"6 <MOVE_SEP> d2d4 <MOVE_SEP> g8f":10061,"Q1/8/":10062,"2b1 <MOVE_SEP> e":10063,"p4R2/":10064,"4P2k/":10065,"4g3 <MOVE_SEP> b":10066,"1p/6p1/":10067,"5 White <MOVE_SEP> g4g5\n":10068,"4P2R/":10069,"8d6 <MOVE_SEP> f":10070,"2d4 <MOVE_SEP> f":10071,"4e5 <MOVE_SEP> a":10072,"7 White <MOVE_SEP> f4f5\n":10073,"Q2n":10074,"4 w - - 0 4":10075,"2k1b":10076,"5RK":10077,"5 White <MOVE_SEP> c4d5\n":10078,"2P2N1P/PP":10079,"2R1R2K":10080,"R/8/":10081,"4 <MOVE_SEP> g4h":10082,"1PpN":10083,"4K2R w K - 0 2":10084,"1R3K2/":10085,"4k2K/":10086,"2 Black <MOVE_SEP> a6a5\n":10087,"6n1 w - - ":10088,"1P1PBP/R":10089,"1d3 <MOVE_SEP> c":10090,"5N2/PPQ":10091,"5 Black <MOVE_SEP> g5g4\n":10092,"6c5 <MOVE_SEP> a":10093,"1p1p3P/":10094,"5 <MOVE_SEP> b3a":10095,"4pPp1/":10096,"9 White <MOVE_SEP> a3a4\n":10097,"PP1QB":10098,"4e2 <MOVE_SEP> d":10099,"1p1p1pp1/":10100,"0 16":10101,"2c1 <MOVE_SEP> g":10102,"1P1p3P/":10103,"1QN1PN":10104,"1p4kp/":10105,"1P3P1K/":10106,"Q/8/":10107,"8d7 <MOVE_SEP> h":10108,"1PP1/8/":10109,"1qpp":10110,"2Qb":10111,"6d6 <MOVE_SEP> g":10112,"8/p1r":10113,"8/8 w - - 3 6":10114,"1 Black <MOVE_SEP> g5g4\n":10115,"2N2N2/PPP2PPP/R":10116,"3/1P1B":10117,"b1d1\n":10118,"6e6 <MOVE_SEP> g":10119,"4PNP1/":10120,"4b4 <MOVE_SEP> f":10121,"1p1b1p1p/":10122,"r2q1r2/":10123," b K - 3 1":10124,"2K5 w - - 0 3":10125,"k6r/":10126,"2/P3Q":10127,"6K1/R":10128,"7P/4K3/":10129,"3f4 <MOVE_SEP> h":10130,"3 Black <MOVE_SEP> g8h8\n":10131,"2r1kb1r/pp":10132,"3P/R1B":10133,"3KB1R b KQkq - 1 1":10134,"4 White <MOVE_SEP> c2c4\n":10135,"6PN/":10136,"1Q2N":10137,"8h8 <MOVE_SEP> c":10138,"3KB1R w KQkq - 1 1":10139,"3p1N2/":10140,"6K1 b - - 0 6":10141,"6pn/":10142,"PP2P1B":10143,"3f8\n":10144,"4P3/8/PPPPNPPP/R":10145,"5 Black <MOVE_SEP> g8h8\n":10146,"1PP2P1P/":10147,"7f6 <MOVE_SEP> a":10148,"6K1 b - - 4 4":10149,"7 Black <MOVE_SEP> f8e8\n":10150,"8 Black <MOVE_SEP> a6a5\n":10151,"5NP1/PP1PPP1P/RNBQKB1R w KQkq - 0 ":10152,"5f3 <MOVE_SEP> d":10153,"5pN1/":10154,"2pp1/8/":10155,"4 White <MOVE_SEP> f2f4\n":10156,"2Pq4/":10157,"3/1P3N":10158,"rnb2rk1/pp":10159,"1p5q/":10160,"5 <MOVE_SEP> g5h":10161,"6 Black <MOVE_SEP> f8g7\n":10162,"8 White <MOVE_SEP> e4e5\n":10163,"4RRK1 w - - 0 2":10164,"r1bqk1nr/pppp1ppp/2n5/":10165,"6 Black <MOVE_SEP> a6a5\n":10166,"5NP1/PPQ1PP":10167,"R2K1 b - - 0 1":10168,"rnbqkb1r/pppp1ppp/5n2/4p3/2P5/":10169,"PB2B":10170,"3p3K/":10171,"4pb1p/":10172,"2PP4/8/":10173,"5c5 <MOVE_SEP> d":10174,"8/5ppk/":10175,"3pPP":10176,"8 White <MOVE_SEP> a3a4\n":10177," Black <MOVE_SEP> c8g4\n":10178,"8b6 <MOVE_SEP> d":10179,"r7/5k2/":10180,"k1p1/":10181,"4R1":10182,"2rqkb1r/pp":10183,"3bq":10184,"7 White <MOVE_SEP> f1e1\n":10185,"2 Black <MOVE_SEP> g5g4\n":10186,"2 Black <MOVE_SEP> g8h8\n":10187,"1P2B1P1/":10188,"3p1bp1/":10189,"7p/p7/":10190,"4g4 <MOVE_SEP> f":10191,"1P2r3/":10192,"3q1p1p/":10193,"QKB1R b KQkq - 2 4":10194,"1b1nbpp1/":10195,"3 White <MOVE_SEP> b1d2\n":10196,"2 White <MOVE_SEP> b2b4\n":10197,"1pp1pn2/":10198,"7 White <MOVE_SEP> f1e2\n":10199,"3p2p1/8/":10200,"1P1B1P2/":10201,"9 White <MOVE_SEP> f4f5\n":10202,"2p4Q/":10203,"rnbqkb1r/1pp2ppp/":10204,"QR1K1 w kq - ":10205,"Nq":10206,"pPB":10207,"8 White <MOVE_SEP> f1g2\n":10208,"9 Black <MOVE_SEP> a6a5\n":10209,"4kpp1/":10210,"5R2 b - - 1 4":10211,"r3/8/":10212,"2pkp/":10213,"3rr2k/":10214,"1QP2N":10215,"1f3 <MOVE_SEP> c":10216,"2pb3p/":10217,"3k1r/":10218,"5PBP/R":10219,"3 b - - 3 3":10220,"4 Black <MOVE_SEP> g8h8\n":10221,"1p2q1p1/":10222,"n6p/":10223,"6k1/6b1/":10224,"8f7 <MOVE_SEP> h":10225,"6 White <MOVE_SEP> f4f5\n":10226,"2 Black <MOVE_SEP> f5f4\n":10227,"13 9":10228,"5Q2/p":10229,"1p3ppp/p3p3/":10230,"4qp/":10231,"8 w - - 13 8":10232," w k - 1 2":10233,"1B3K2/":10234,"3P1n2/":10235,"3n2K1/":10236,"3p4/p2P":10237,"2NP1NP1/PP2PP":10238,"P5R1/":10239,"8 b - - 2 10":10240,"4qP2/":10241,"4K3/8/8/8/8/":10242,"6 Black <MOVE_SEP> g8h8\n":10243,"6 <MOVE_SEP> c2c4 <MOVE_SEP> c7c":10244,"n2B":10245,"np2p":10246,"3k1K2/":10247,"3nP/":10248,"1p1Pp/":10249,"p1b2/":10250,"rnbqkbnr/pp2pppp/2pp4/8/":10251,"2P1k3/":10252,"1n1p4/":10253,"3q1P2/":10254,"3g5 <MOVE_SEP> f":10255,"2PB1/R1B":10256,"3R4 b - - 2 3":10257,"2R5 w - - 1 3":10258,"8/8/5B2/":10259,"5Pn1/":10260,"1P2PNP1/PB":10261,"3b5 <MOVE_SEP> c":10262,"4c4 <MOVE_SEP> d":10263,"3r1B":10264,"3 w - - 3 3":10265,"8 Black <MOVE_SEP> g8h8\n":10266,"4p1q1/":10267,"1P/1P6/":10268,"1k3P2/":10269,"4r1/8/":10270,"5 White <MOVE_SEP> f4f5\n":10271,"1K b - - 1 3":10272,"PP3P2/R1B":10273,"6Q1/P":10274,"2R3K1 b - - 1 2":10275,"2 Black <MOVE_SEP> b5b4\n":10276,"PPP/RN2K2R":10277,"3f4 <MOVE_SEP> a":10278,"6 White <MOVE_SEP> e2e3\n":10279,"1 Black <MOVE_SEP> b5b4\n":10280,"5N2/PP2PPPP/RNBQKB1R b KQkq - 0 ":10281,"3 b":10282,"1b/8/":10283,"4pr2/":10284,"PPP2P2/R":10285,"8/8/8 w - - 3 7":10286,"1q1N":10287,"5P2/P7/":10288,"3 b - - 3 2":10289,"3 <MOVE_SEP> b8a":10290,"1P/P2B":10291,"5k2/5P2/":10292,"8/4k2p/":10293,"2k1K3/":10294,"1K b - - 0 1":10295,"1q1B":10296,"3 16":10297,"rnb1kbnr/":10298,"1R w - - 2 2":10299,"1N1/8/":10300,"6 0 3":10301,"P4N1P/":10302,"2R1K1R":10303,"8 w - - 6 9":10304,"5k2/1R6/":10305,"8/8/8 w - - 0 6":10306,"7 Black <MOVE_SEP> f5f4\n":10307,"pb2bppp/":10308,"1 Black <MOVE_SEP> b7b5\n":10309,"1pp2p2/p":10310,"3q1r2/":10311,"4Qp2/":10312,"2KR3R w - - 0 2":10313,"p2p4/2PP4/":10314,"1pPB":10315," w - - 5 3":10316,"1Q1/8/":10317,"ppppbp/":10318,"0 Black <MOVE_SEP> f5f4\n":10319,"6p1/2p5/":10320,"P1N4P/":10321,"2P2PK1/":10322,"6b7 <MOVE_SEP> e":10323,"PP2PP2/":10324,"3 Black <MOVE_SEP> g5g4\n":10325,"8 Black <MOVE_SEP> b7b6\n":10326,"0 White <MOVE_SEP> a2a4\n":10327,"2p2p1P/":10328,"N2K1NR":10329,"P6R/":10330,"1p4n1/":10331,"5r2/1P":10332,"2 16":10333,"r2q1rk1/pp1b":10334,"7b8 <MOVE_SEP> f":10335,"5c4 <MOVE_SEP> a":10336,"5 <MOVE_SEP> b7a":10337,"1N2B":10338,"p3P1P1/":10339,"5RK1 w - - 2 2":10340,"p3Q3/":10341,"rnbqkb1r/p1pp1ppp/":10342,"q1pP":10343,"1k1rr3/":10344,"2Pn/":10345,"3R/8/":10346,"1Q4p1/":10347,"3R1RK1 w - - 1 2":10348,"1P3PBP/R":10349,"3 Black <MOVE_SEP> c7c6\n":10350,"4BP1/":10351,"5d5 <MOVE_SEP> c":10352,"6d7 <MOVE_SEP> a":10353,"3 <MOVE_SEP> f8c":10354,"4rk1r/":10355,"4e6 <MOVE_SEP> c":10356,"p2bpn2/":10357,"4pP1/":10358,"rnbr2k1/":10359,"4k1p/":10360,"8 b - - 11 8":10361,"7 Black <MOVE_SEP> a6a5\n":10362,"4PK2/8/":10363,"1k3K2/":10364,"7d5 <MOVE_SEP> f":10365,"4qp1p/":10366,"8 b - - 12 5":10367,"1p1nppbp/":10368,"4P2n/":10369,"1Q2K":10370,"2p1n/":10371,"7 <MOVE_SEP> b1a":10372,"4 16":10373,"r1q1r1k1/":10374,"2Q1RK1 w - - 1 1":10375,"6b5 <MOVE_SEP> f":10376,"5K2/8 b - - 0 4":10377,"p2ppn2/":10378,"3 <MOVE_SEP> b8c6 <MOVE_SEP> f":10379,"3P4/4P3/":10380,"bp1p":10381,"2K1k3/":10382,"1p1n1p/":10383,"0 White <MOVE_SEP> f1g2\n":10384,"q1pP4/":10385,"3R1Q":10386,"5 Black <MOVE_SEP> c5d4\n":10387,"8 w - - 3 10":10388,"2a2 <MOVE_SEP> e":10389,"1 Black <MOVE_SEP> f7f5\n":10390,"1p3B2/":10391,"2pp2p1/8/":10392," White <MOVE_SEP> c1g5\n":10393,"6P1/PP1N":10394,"3 Black <MOVE_SEP> f5f4\n":10395,"2R5 b - - 1 4":10396,"6b5 <MOVE_SEP> d":10397,"4q2k/":10398,"PP2PPBP/R1B":10399,"2b1N":10400,"3p4/3P4/5NP1/PPP1PP":10401,"4RN":10402,"3Q1p2/":10403,"2QKB1R w KQ - 0 1":10404,"P3N3/":10405,"n1B":10406,"PPp/":10407,"4qppp/":10408,"1 Black <MOVE_SEP> f5f4\n":10409,"NBQKB1R w KQkq - 2 4":10410,"P7/5P2/":10411,"p2n/":10412,"1b1 <MOVE_SEP> h":10413,"5Q2 w - - ":10414,"1P/PP1B":10415,"1p1n3p/":10416,"6K1 w - - 4 4":10417,"2P1/P7/":10418,"p1b1pp/":10419,"1Pn/":10420,"3 White <MOVE_SEP> f2f4\n":10421,"7 Black <MOVE_SEP> g5g4\n":10422,"1K w - - 2 2":10423,"3Pp3/P":10424,"2Nq":10425,"p1pn1ppp/":10426,"P1/P2P":10427,"7b8 <MOVE_SEP> c":10428,"4 Black <MOVE_SEP> c7c5\n":10429,"8/1R6/8/":10430,"3R2K1 w - - 0 4":10431,"1p2npp1/":10432,"pq2p3/":10433,"1 White <MOVE_SEP> f1e2\n":10434,"2p1P1P1/":10435,"QK2R b KQkq - 1 6":10436,"1Rp/":10437,"2ppk/":10438,"5 White <MOVE_SEP> d2d4\n":10439,"1PPR":10440,"Pp2p/":10441,"3q3r/":10442,"2 Black <MOVE_SEP> d8c7\n":10443,"3 White <MOVE_SEP> b2b4\n":10444,"4QK2/":10445,"2K5 w - - 0 4":10446,"2b1 <MOVE_SEP> d":10447,"5P1r/":10448,"3e4 <MOVE_SEP> h":10449,"5 Black <MOVE_SEP> f5f4\n":10450,"3 Black <MOVE_SEP> b5b4\n":10451,"1pQ5/":10452,"3qn":10453,"8e6 <MOVE_SEP> e":10454,"2 <MOVE_SEP> h8h":10455,"4 White <MOVE_SEP> c4d5\n":10456,"0 Black <MOVE_SEP> g5g4\n":10457,"2P3P1/R":10458,"2b1 <MOVE_SEP> f":10459,"r1bk1/":10460,"2q/8/":10461,"2K1 b - - 1 2":10462,"9 Black <MOVE_SEP> f5f4\n":10463,"8 w - - 9 4":10464,"7f5 <MOVE_SEP> d":10465,"1Q2P":10466,"1P2P3/PB":10467,"1 Black <MOVE_SEP> g8h8\n":10468,"p2P2/":10469,"2R2N":10470,"r2qk1r1/":10471,"1KB1R b KQ - 0 1":10472,"4p3/1PP":10473,"pp1n1ppp/":10474,"4BN1P/":10475,"rnbqk2r/pp1p1ppp/":10476,"2P2N2/PP3PPP/R":10477,"8 b - - 14 7":10478,"1 White <MOVE_SEP> e4e5\n":10479,"5e7 <MOVE_SEP> f":10480,"1p1p1p2/":10481,"rq2k":10482,"2Q2P1/":10483,"P7/7P/":10484,"P1Pp4/":10485,"7 Black <MOVE_SEP> g8h8\n":10486,"P2P1NP1/":10487,"PP3PBP/R":10488,"p2/p7/":10489,"r1b1r3/":10490,"7c6 <MOVE_SEP> b":10491,"QKB1R b KQkq - 1 6":10492,"7R w - - 1 4":10493,"NBQKB1R b KQkq - 2 2":10494,"3r1k2/8/":10495,"4e3 <MOVE_SEP> f2e":10496,"3c3 <MOVE_SEP> g":10497,"1K1 b - - 3 1":10498,"2P2n2/":10499,"1PP2P2/R":10500,"7c5 <MOVE_SEP> c":10501,"5d4 <MOVE_SEP> a":10502,"pn1/":10503,"15 6":10504,"QKB1R b KQkq - 2 5":10505,"B1/P":10506,"8/q7/":10507,"5 16":10508,"0 Black <MOVE_SEP> f8g7\n":10509,"1p2ppp1/":10510,"RP/":10511,"1n2p/":10512,"3nN3/":10513,"3R4 w - - 2 3":10514,"b1P5/":10515,"3B1Q":10516,"0 White <MOVE_SEP> h2h4\n":10517,"P1pp":10518,"3N1P1/":10519,"5g5 <MOVE_SEP> g":10520,"3Pb/":10521,"5PB/":10522,"1p2p1pp/":10523,"8/6R1/8/":10524,"2Ppp3/":10525,"8/8/K7/8/":10526,"3p3k/":10527,"4bn1p/":10528,"2P2b2/":10529,"2kb4/":10530,"5b5 <MOVE_SEP> f":10531,"8/p4k2/":10532,"8/8/8 w - - 8":10533,"1pN/":10534,"3Np/":10535,"2p5/2Pp":10536,"p1npb":10537,"B2n":10538,"7g8 <MOVE_SEP> f":10539,"2/PPPQ":10540,"PPP/RNBQ1RK1 w kq - ":10541,"6d5 <MOVE_SEP> h":10542,"b1h1\n":10543,"3kb3/":10544,"pP1B":10545,"4 <MOVE_SEP> b8c6 <MOVE_SEP> d":10546,"nr/pp":10547,"p6q/":10548,"8/1q6/":10549,"4Pk2/":10550,"2q3pp/":10551,"6b6 <MOVE_SEP> e":10552,"1P2P2p/":10553,"P1BP/":10554,"1P2BP2/":10555,"B2/8/":10556,"K6R":10557,"1c1 <MOVE_SEP> h":10558,"3r1b2/":10559,"1P3N2/P":10560,"4 Black <MOVE_SEP> f5f4\n":10561,"PPP1PPP1/R":10562,"2pB/":10563,"3P2pp/":10564,"4p3/1B":10565,"1bP1/":10566,"1n6 b - - ":10567,"1 White <MOVE_SEP> e3e4\n":10568,"3 Black <MOVE_SEP> f7f5\n":10569,"4qrk1/":10570,"1p2pn":10571,"8/6k1/7p/":10572,"1K b - - 2 2":10573,"5 <MOVE_SEP> g1f3 <MOVE_SEP> g8f":10574,"6 <MOVE_SEP> e1g1 <MOVE_SEP> c":10575,"5e4 <MOVE_SEP> a":10576,"2 White <MOVE_SEP> a2a3\n":10577,"2npp1/":10578,"2ppP3/8/":10579,"5g6 <MOVE_SEP> b":10580,"p4p1P/":10581,"7 White <MOVE_SEP> f1g2\n":10582,"kP/":10583,"8/4K":10584,"6K1 b - - 1 6":10585,"1pp1/4p2p/":10586,"2 White <MOVE_SEP> g1h1\n":10587,"2P2p1/":10588,"2PNP3/":10589,"3R1P1P/":10590,"4g4 <MOVE_SEP> c":10591,"9 Black <MOVE_SEP> a7a6\n":10592,"1h1 <MOVE_SEP> g":10593,"0 White <MOVE_SEP> f2f4\n":10594,"2 w - - 0 6":10595,"1PQ1N":10596,"4f2 <MOVE_SEP> e":10597,"1p2bp2/p":10598,"1 White <MOVE_SEP> h2h4\n":10599,"K1 b kq - 5 1":10600,"1 w - - 1 4":10601,"0 Black <MOVE_SEP> c8d7\n":10602,"6 16":10603,"4 Black <MOVE_SEP> g5g4\n":10604,"7 Black <MOVE_SEP> g8g7\n":10605,"r1bqkb1r/pp3pp1/":10606,"2 Black <MOVE_SEP> g8g7\n":10607,"rnbqkbnr/pp1ppppp/8/2p5/2P5/5N2/PP1PPPPP/R":10608," w - - 0 7":10609,"1R1n":10610,"2N2R":10611,"PP2/R":10612,"6K1 b - - 4 3":10613,"2P2P2/1P":10614,"2f4 <MOVE_SEP> f":10615,"5c3 <MOVE_SEP> d":10616,"1pb1p/":10617,"7 White <MOVE_SEP> f2f4\n":10618,"1 Black <MOVE_SEP> a7a5\n":10619,"R1B1R":10620,"1p1b1p2/":10621,"1p1P2/":10622,"2pr/":10623,"2NP1N1P/":10624,"8/8/5K2 b - - ":10625,"3p1Q":10626,"3kpp/":10627," White <MOVE_SEP> d4c5\n":10628,"4P3/2N2N2/PPPP1PPP/R1B":10629,"6K1/8/8/8/":10630,"5RK1 w - - 2 3":10631,"4k2r/pp":10632,"3QKB1R":10633,"3bb3/":10634,"3q4/P":10635,"8/8/8/8/2k5/":10636,"0 White <MOVE_SEP> g1h1\n":10637,"1P2PPP/":10638," b k - 1 1":10639,"2r1k1r1/":10640,"1R6 b - - 1 3":10641,"r1b1kb1r/pp1p1ppp/":10642,"b1g1\n":10643,"3r1p1p/":10644,"PPP/2R2R":10645,"2p2pk1/":10646,"5QK1/":10647,"3b1/P":10648,"2p2p2/P":10649,"QKBNR w KQkq - 2 4":10650,"2qk1/":10651,"6b7 <MOVE_SEP> d":10652,"5f7 <MOVE_SEP> e":10653,"5Q2 b - - ":10654,"n1N":10655,"3p4/N":10656,"7g7 <MOVE_SEP> c":10657,"rnbqk1nr/ppppbppp/4p3/8/":10658,"2 b":10659,"8 Black <MOVE_SEP> f5f4\n":10660,"n1/P":10661,"5g6 <MOVE_SEP> g":10662,"PB2Q":10663,"3 White <MOVE_SEP> f3f4\n":10664,"5 Black <MOVE_SEP> b5b4\n":10665,"p5B1/":10666,"3NN":10667,"7g8 <MOVE_SEP> e":10668,"5c3 <MOVE_SEP> e":10669,"pq1ppp/":10670,"8/8/4P3/":10671,"3K1P2/8/":10672,"4d5 <MOVE_SEP> h":10673,"3d5 <MOVE_SEP> b":10674,"0 White <MOVE_SEP> f3f4\n":10675,"q4rk1/":10676,"8/5q2/":10677,"2r2b":10678,"4B1P/":10679,"3ppk/":10680,"9 White <MOVE_SEP> f1e2\n":10681,"8 Black <MOVE_SEP> g5g4\n":10682,"1R b - - 0 3":10683,"1P3N1P/":10684,"8/8/3B":10685,"3rp/":10686,"1 b k - ":10687,"2R2K1 w - - 0 1":10688,"n7 b - - ":10689,"3QP":10690,"3 <MOVE_SEP> b5b":10691,"8/8 w - - 0 7":10692,"4 Black <MOVE_SEP> f7f5\n":10693,"5 White <MOVE_SEP> g1h1\n":10694,"3 Black <MOVE_SEP> h8g8\n":10695,"2p1PP":10696,"2b1 <MOVE_SEP> c":10697,"k2p/":10698,"qp6/":10699,"1b3P":10700,"1PPPN":10701,"8 b - - 13 7":10702,"2K1 b - - 0 3":10703,"4K3 b - - 1 4":10704,"PP2P1P1/":10705,"1N1Q":10706,"4f3 <MOVE_SEP> h":10707,"2a2 <MOVE_SEP> f":10708,"/P1Q":10709,"9 Black <MOVE_SEP> g8h8\n":10710,"6n1 b - - ":10711,"1N3N":10712,"rnbk":10713,"9 White <MOVE_SEP> e4e5\n":10714,"5 White <MOVE_SEP> g1g2\n":10715,"4p3/N":10716,"6K1 b - - 3 5":10717,"8/5k2/6p1/":10718,"8 Black <MOVE_SEP> b5b4\n":10719,"8/p7/P7/":10720,"2 Black <MOVE_SEP> f7f5\n":10721,"3PPK/":10722,"0 White <MOVE_SEP> c4c5\n":10723,"p3q2p/":10724,"1rbqkb1r/":10725,"3KP2/":10726,"1pn4p/":10727,"12 4":10728,"3b5 <MOVE_SEP> d":10729,"5k2/4p3/":10730,"3 White <MOVE_SEP> d4d5\n":10731,"0 White <MOVE_SEP> e3e4\n":10732,"3RRB":10733,"3b3r/":10734,"Pp4p1/":10735,"1 White <MOVE_SEP> f2f4\n":10736,"3 Black <MOVE_SEP> b7b5\n":10737,"p2/7p/":10738,"4QP/":10739,"K6p/":10740,"2 White <MOVE_SEP> e4e5\n":10741,"QKBNR b KQkq - 2 2":10742,"R1P5/":10743,"k1r":10744,"2N2N2/PP2BPPP/R1B":10745,"5K2/8 w - - 0 5":10746,"1 b - - 3 2":10747,"1Pn5/":10748,"rnbqkb1r/pp3ppp/2p1pn2/":10749,"2PBB":10750,"4r1k1/5p2/":10751,"8 b - - 8 9":10752,"2Q3":10753,"2r5/6k1/":10754,"1 White <MOVE_SEP> g1h1\n":10755,"2 White <MOVE_SEP> f3f4\n":10756,"0 Black <MOVE_SEP> f7f5\n":10757,"3bP":10758,"4rk2/p":10759,"PP1/R3K2R":10760,"3 Black <MOVE_SEP> g8g7\n":10761,"4 White <MOVE_SEP> g1h1\n":10762,"n1p3p1/":10763,"PP1n":10764,"8/8/8/3K":10765,"1 Black <MOVE_SEP> h8g8\n":10766,"3R2K1 w - - 2 3":10767,"20 8":10768,"Q2K":10769,"7 16":10770,"5d4 <MOVE_SEP> d1d":10771,"2/PP1N":10772,"n2p4/":10773,"8/8/8/8/5K2/":10774,"9 Black <MOVE_SEP> g8g7\n":10775,"3 White <MOVE_SEP> b4b5\n":10776,"8/8/8/8/4K3/":10777,"3/1P1N":10778,"r1bqkb1r/pp3p1p/":10779,"6 Black <MOVE_SEP> g8g7\n":10780,"8/8/5q2/":10781,"3pb1p1/":10782,"1 White <MOVE_SEP> f3f4\n":10783,"1 White <MOVE_SEP> a2a4\n":10784,"2n2p1p/":10785,"1Q2P2P/":10786,"3P4/6P1/":10787,"8 White <MOVE_SEP> g1h1\n":10788,"Q2b":10789,"1b2k":10790,"3P3B/":10791,"bpP":10792,"pN3/":10793,"3p3Q/":10794,"3pq3/":10795,"2b1p1p1/":10796,"5n1k/":10797,"3B1/P":10798,"1PN1/":10799,"4 White <MOVE_SEP> d4d5\n":10800,"9 White <MOVE_SEP> g1h1\n":10801,"1n1P":10802,"3BP2/":10803,"3g4 <MOVE_SEP> a":10804,"2a2 <MOVE_SEP> d":10805,"6 White <MOVE_SEP> f2f4\n":10806," b K - 2 2":10807,"n1q":10808,"2qp1/":10809,"4 Black <MOVE_SEP> b7b5\n":10810,"P1/PP3PBP/R1B":10811,"r1bqkb1r/pp2pppp/2n2n2/":10812,"Qp1/":10813,"8/6q1/":10814,"2Pr4/":10815,"8/pP":10816,"pp1B":10817,"2n1pnp1/":10818,"4P3/7P/":10819,"6f6 <MOVE_SEP> g":10820,"n3P":10821,"2K1B3/":10822,"8/8/8 b - - 8":10823,"1PQ1/":10824,"2k5/1p6/":10825,"1K1P1/":10826,"3BK/":10827,"3K4/8/8/8/8/":10828,"P1B2/":10829,"8 White <MOVE_SEP> f3f4\n":10830,"7a7 <MOVE_SEP> f":10831,"1rb1kb1r/":10832,"2RP/":10833,"2Q2N":10834,"2 White <MOVE_SEP> f2f4\n":10835,"2N5/PPPPNPPP/R1B":10836,"4b2k/":10837,"1P6/6P1/":10838,"PP3NP1/":10839,"1b1P/":10840,"4Pq":10841,"5pn1/":10842,"8 16":10843,"n2P/":10844,"3p1q2/":10845,"3P2Q1/":10846,"4 Black <MOVE_SEP> e5e4\n":10847,"3/P3P1P1/":10848,"5R2/8/8/":10849,"2p2p2/8/":10850,"1rbr2k1/":10851,"6 Black <MOVE_SEP> f5f4\n":10852,"3P4/2N5/PPP1PPPP/R1BQKBNR b KQkq - 1 2":10853,"5 White <MOVE_SEP> f2f4\n":10854,"9 Black <MOVE_SEP> b5b4\n":10855,"2g2 <MOVE_SEP> c":10856,"3 White <MOVE_SEP> g1h1\n":10857,"5 White <MOVE_SEP> c2c3\n":10858,"4 White <MOVE_SEP> f3f4\n":10859,"2P1P2p/":10860,"6 <MOVE_SEP> g2g3 <MOVE_SEP> d7d":10861,"3PK3/":10862,"7 White <MOVE_SEP> f3f4\n":10863,"3b5 <MOVE_SEP> e":10864,"3d4 <MOVE_SEP> h":10865,"6 Black <MOVE_SEP> b5b4\n":10866,"2pn1ppp/":10867,"pp2b1pp/":10868,"3RP/":10869,"r1br4/":10870,"5 Black <MOVE_SEP> f7f5\n":10871,"6 White <MOVE_SEP> g1h1\n":10872,"0 White <MOVE_SEP> b4b5\n":10873,"1N4p1/":10874,"2 White <MOVE_SEP> g1g2\n":10875,"r1bqk1nr/pp2bppp/":10876,"R1n":10877,"2P3Pp/":10878," b - - 5 3":10879,"6 Black <MOVE_SEP> g5g4\n":10880,"5 Black <MOVE_SEP> g8g7\n":10881,"2P1N1P/":10882,"2 White <MOVE_SEP> b4b5\n":10883,"7a7 <MOVE_SEP> e":10884,"8 Black <MOVE_SEP> f7f5\n":10885,"4f5 <MOVE_SEP> a":10886,"3p2PP/":10887,"2RK1 w kq - 0 1":10888,"2c1 <MOVE_SEP> b":10889,"8 White <MOVE_SEP> f2f4\n":10890,"5 Black <MOVE_SEP> b7b5\n":10891,"1pP/6P1/":10892,"P4/8/":10893,"pp2/p":10894,"8/2q5/":10895,"2PR/":10896,"5g5 <MOVE_SEP> d":10897,"5K2 b - - 3 4":10898,"5NP1/PPPPPPBP/R":10899,"1n4k1/":10900,"5g5 <MOVE_SEP> e":10901,"7 White <MOVE_SEP> g1h1\n":10902,"2K5 b - - 0 4":10903,"1rP/":10904,"4c6 <MOVE_SEP> e":10905,"1 White <MOVE_SEP> c4c5\n":10906,"3 Black <MOVE_SEP> e5e4\n":10907,"4 White <MOVE_SEP> c4c5\n":10908,"3k4/7p/":10909,"8/p6k/":10910,"2 Black <MOVE_SEP> b7b5\n":10911," w KQq - 0 1":10912,"2PPP1/R":10913,"2P5/1PN":10914,"6p1/5p1p/":10915,"6 White <MOVE_SEP> f3f4\n":10916,"8 White <MOVE_SEP> e3e4\n":10917,"8 White <MOVE_SEP> c4c5\n":10918,"5K1 w - - 1 3":10919,"Pp2P3/":10920,"0 Black <MOVE_SEP> e5e4\n":10921,"2 Black <MOVE_SEP> f6f5\n":10922,"9 Black <MOVE_SEP> g5g4\n":10923,"4 White <MOVE_SEP> b4b5\n":10924,"2R1R1K1 b - - 0 2":10925,"4d2 <MOVE_SEP> d":10926,"pp2bp1p/":10927,"2P/5PP1/":10928," White <MOVE_SEP> f3e5\n":10929,"qpbp/":10930,"K1 b - - 6 1":10931,"6g4 <MOVE_SEP> d":10932,"5 White <MOVE_SEP> d4d5\n":10933,"3 White <MOVE_SEP> c4d5\n":10934,"6 White <MOVE_SEP> g1g2\n":10935,"QKB1R w KQkq - 1 1":10936,"r1b1k2r/pp2bppp/":10937,"4R1B1/":10938,"p1n1p1p1/":10939,"3RR1":10940,"qnrk1/":10941,"8 White <MOVE_SEP> b4b5\n":10942,"2R1R1K1 w - - ":10943,"p3k3/P":10944,"1Q3PP1/":10945,"3k1p1p/":10946,"r4p1p/":10947,"ppp2pp1/":10948,"8 w - - 9 9":10949,"p2n1p2/":10950,"1P4Q1/":10951,"8/8/1q":10952,"1Bp1/":10953,"6 Black <MOVE_SEP> b7b5\n":10954,"3p1n2/8/":10955,"9 White <MOVE_SEP> f3f4\n":10956,"1Kp/":10957,"3c4 <MOVE_SEP> a":10958,"4R3/8/8/":10959,"2P4/P":10960,"7g8 <MOVE_SEP> d":10961,"8 b - - 13 6":10962,"5 White <MOVE_SEP> f3f4\n":10963,"1KR5/":10964,"16 7":10965,"2pn/":10966,"4p3/3p4/":10967,"pPN":10968,"P3/3P4/":10969,"1 Black <MOVE_SEP> c8d7\n":10970,"4KPP1/":10971,"8c6 <MOVE_SEP> f":10972,"0 White <MOVE_SEP> f3e5\n":10973,"PPQ2PPP/R":10974,"4kr/":10975,"7P/6PK/":10976,"7 White <MOVE_SEP> g1g2\n":10977,"NBP/":10978,"8f2\n":10979,"1h1 <MOVE_SEP> c":10980,"2Q1p3/":10981,"8/p4pk1/":10982,"1B4K1/":10983,"6 Black <MOVE_SEP> f7f5\n":10984,"5g1\n":10985,"1 White <MOVE_SEP> g1g2\n":10986,"1PPQB":10987,"6 Black <MOVE_SEP> e7e6\n":10988,"3R2K1 b - - 2 3":10989,"3k2/p":10990,"4bk/":10991,"N4":10992,"8/8/6pk/":10993,"4PP1/R1B":10994,"2N3P1/PP2PPBP/R1B":10995,"1/P2P4/":10996,"rnbqk1nr/ppp2ppp/":10997,"6b1\n":10998,"pp5/":10999,"PP5P/R":11000,"K1 b - - 1 4":11001,"7f8 <MOVE_SEP> h":11002,"P2/6P1/":11003,"6f5 <MOVE_SEP> a":11004,"8 White <MOVE_SEP> g1g2\n":11005,"Q1p/":11006,"2R1b":11007,"8f6 <MOVE_SEP> c":11008,"4N1B1/":11009,"PPP/R1BQ1RK1 b kq - ":11010,"N1QK2R b KQkq - 0 ":11011,"5c7 <MOVE_SEP> d":11012,"p1PpP":11013,"1 Black <MOVE_SEP> g8g7\n":11014,"4 Black <MOVE_SEP> g8g7\n":11015,"4 Black <MOVE_SEP> b5b4\n":11016,"1 White <MOVE_SEP> b4b5\n":11017,"rnbqkbnr/pp2pppp/3p4/":11018,"2P/5P2/":11019,"2pp4/3PP3/":11020,"4 Black <MOVE_SEP> c7c6\n":11021,"k3/8/":11022,"2p2N2/":11023,"3pb/":11024,"7 Black <MOVE_SEP> b5b4\n":11025,"9 Black <MOVE_SEP> f6f5\n":11026,"r1bqk2r/1p2bppp/":11027,"3d5 <MOVE_SEP> d":11028,"6b7 <MOVE_SEP> c":11029,"2g1 <MOVE_SEP> f":11030,"2KR4/":11031,"7K b - - 1 3":11032,"pQ1/":11033,"2p1R3/":11034,"2Br":11035," White <MOVE_SEP> c1d2\n":11036,"4e2 <MOVE_SEP> c":11037,"3R1K1 b - - 1 2":11038,"16 8":11039,"4c3 <MOVE_SEP> a":11040,"2Pp1P2/":11041,"1R4K1 w - - 1 3":11042,"4PN2/PP2BPPP/R":11043,"rnbqkb1r/pp1p1ppp/4pn2/2p5/2P5/":11044,"8/8/2q":11045,"1pq2p1p/":11046,"5 Black <MOVE_SEP> e6d5\n":11047,"8h1\n":11048,"8 b - - 14 6":11049,"4 <MOVE_SEP> h2h3 <MOVE_SEP> g":11050,"rnbqk2r/pp1pbppp/4pn2/":11051,"2K1N":11052,"2PPN":11053,"4 <MOVE_SEP> b5b":11054,"3 White <MOVE_SEP> e3e4\n":11055,"2qnbppp/":11056,"8/3R4/8/":11057,"1p5Q/":11058,"3Q3K":11059,"7 Black <MOVE_SEP> f6f5\n":11060,"ppp2p":11061,"1K3k2/":11062,"3r2k1/5pp1/":11063,"pBp/":11064,"4 White <MOVE_SEP> b2b4\n":11065,"q1pp1p/":11066,"3p1r":11067,"5 White <MOVE_SEP> c4c5\n":11068,"r3b3/":11069,"4B2k/":11070,"6K1 b - - 2":11071,"2p4q/":11072,"3p1p1P/":11073,"6 Black <MOVE_SEP> f6f5\n":11074,"4e4 <MOVE_SEP> g":11075,"3PPB2/":11076,"N2B":11077,"3Q1P1P/":11078,"r5n":11079,"8 w - - 15 7":11080,"2N1PN1P/":11081,"2r2r":11082,"0 Black <MOVE_SEP> g8g7\n":11083,"p2q3p/":11084,"3PQ3/":11085,"2 White <MOVE_SEP> e3e4\n":11086,"5e5 <MOVE_SEP> g":11087,"Pp5p/":11088,"0 Black <MOVE_SEP> h7h5\n":11089,"8/7p/7P/":11090,"rn6/":11091,"8b8 <MOVE_SEP> h":11092,"3 Black <MOVE_SEP> f6f5\n":11093,"9 White <MOVE_SEP> g1g2\n":11094,"p5Q":11095,"p5R1/":11096,"0 White <MOVE_SEP> g1g2\n":11097,"2p1Q3/":11098,"2P2r":11099,"8/8/3Q4/":11100,"2 White <MOVE_SEP> c4c5\n":11101,"2r1r2k/":11102,"RP6/":11103,"5 Black <MOVE_SEP> e5e4\n":11104,"1p2q2p/":11105,"1B2n":11106,"4RK1 b - - 1 1":11107,"8/8 w - - 3 5":11108,"5 White <MOVE_SEP> b4b5\n":11109,"1b2B":11110,"2bqk2r/":11111,"5RB1/":11112,"p2p1b2/":11113,"3 White <MOVE_SEP> g1g2\n":11114,"3 Black <MOVE_SEP> c7c5\n":11115,"8 Black <MOVE_SEP> g8g7\n":11116,"4PN2/PPPP1PPP/RNBQKB1R b KQkq - 0 ":11117,"1 White <MOVE_SEP> f1g2\n":11118,"R4p":11119,"3P1k2/":11120,"2r1B":11121,"1h8\n":11122,"7p/5P1P/":11123,"1 b - - 1 4":11124,"6 White <MOVE_SEP> b4b5\n":11125,"1P1/P6P/":11126,"1 Black <MOVE_SEP> f6f5\n":11127,"9 White <MOVE_SEP> f2f4\n":11128,"8/8/4k1p1/":11129,"3qk3/":11130,"4R3 b - - 2 3":11131,"3rk1r1/":11132,"2 Black <MOVE_SEP> h8g8\n":11133,"rnbq1rk1/pp3ppp/":11134,"q1/8/":11135,"3R1PP1/":11136,"4Bp/":11137,"2f4 <MOVE_SEP> g":11138,"2/1P3PPP/":11139,"1Pp4P/":11140,"1P1B3P/":11141,"2 Black <MOVE_SEP> c5d4\n":11142,"1K w - - 0 1":11143,"q3k":11144,"2p4B/":11145,"8 b - - 7 9":11146,"8 b - - 9 4":11147,"8/5r2/8/":11148,"2P4/8/":11149,"4n3 w - - ":11150,"k1r5/":11151,"1kP/":11152,"6d4 <MOVE_SEP> d":11153,"1k6/1p6/":11154,"r1b1k2r/1pqn":11155,"p4r1p/":11156,"3/P1B":11157,"4e2 <MOVE_SEP> f":11158,"2QK1NR b KQkq - ":11159,"P4p1p/":11160,"2 b - - 4 2":11161,"0 Black <MOVE_SEP> f6f5\n":11162,"8 Black <MOVE_SEP> f6f5\n":11163,"2Q2PPP/":11164,"p1b3/":11165,"9 Black <MOVE_SEP> h8g8\n":11166,"4qk2/":11167,"2 w":11168,"Rp/":11169,"5n2/P":11170,"pp3q":11171,"8/3k1p2/":11172,"1 Black <MOVE_SEP> e5e4\n":11173,"3R4 b - - 0 2":11174,"2bk4/":11175,"1p2n1p1/":11176,"1B3PP1/R":11177,"4R/8/":11178,"p1N1/":11179,"P1R/":11180,"1N1n":11181,"7c8 <MOVE_SEP> b":11182,"3PP3/2P":11183,"K1 b k - 3 1":11184,"1P2Pp":11185,"3h3 <MOVE_SEP> e":11186,"2PpP/":11187,"1p1n2p1/":11188,"7 Black <MOVE_SEP> f7f5\n":11189," w Kq - ":11190,"p1p1p3/P":11191,"4 <MOVE_SEP> f7f5 <MOVE_SEP> e":11192,"8/4R3/8/":11193,"2b2K2/":11194,"4n3 b - - ":11195,"pN/":11196,"1r2p/":11197,"4P1Q1/":11198,"PPPP1PPP/R1B":11199,"pNn":11200,"K1 b q - 0 1":11201,"rnbqkb1r/p1pp1ppp/1p2pn2/8/":11202,"1b/P":11203,"3p4/3N":11204,"9 White <MOVE_SEP> e3e4\n":11205,"2Q1/8/":11206,"3p1P1/":11207,"2QK2R w KQkq - 1 1":11208,"5 Black <MOVE_SEP> h8g8\n":11209,"8/7b/":11210,"2P2/PP":11211,"1b2/P":11212,"PP2BPPP/RNB":11213,"PPPN1PPP/R":11214,"Q2p":11215,"3p1p2/P":11216,"5PBK/":11217,"q3n":11218,"1bp2ppp/":11219,"5e7 <MOVE_SEP> c":11220,"6 White <MOVE_SEP> c4d5\n":11221,"R6K/":11222,"q2P4/":11223,"5R/8/":11224,"4 Black <MOVE_SEP> f6f5\n":11225,"3R4 w - - 0 5":11226," b KQ":11227,"3p1P1p/":11228,"1PPN/":11229,"4c2 <MOVE_SEP> d":11230,"6QK":11231,"P4PB1/":11232,"14 5":11233,"p4B2/":11234,"6g5 <MOVE_SEP> a":11235,"1 Black <MOVE_SEP> g8f8\n":11236,"pp2p1p1/":11237,"NB1K2R b KQkq - ":11238,"2N2/P":11239,"8/5r1k/":11240,"2p2K":11241,"n1p/8/":11242,"1 Black <MOVE_SEP> h7h5\n":11243,"p2pN3/":11244,"5NP1/PP1PPP1P/RNBQKB1R b KQkq - 0 ":11245,"17 7":11246,"K4R":11247,"8/8/2Q5/":11248,"6 Black <MOVE_SEP> b8c6\n":11249,"0 Black <MOVE_SEP> h8g8\n":11250,"3K4 w - - 0 4":11251,"2NB1N2/PPP2PPP/R1B":11252,"r5rk/":11253,"p5n":11254,"2p5/3pP3/":11255,"1p6/3P4/":11256,"3r2k1/5p2/":11257,"9 White <MOVE_SEP> b4b5\n":11258,"5 <MOVE_SEP> g1f3 <MOVE_SEP> d7d":11259,"1R2P3/":11260,"rnbqkb1r/ppp2ppp/5n2/":11261,"1pP1P3/":11262,"2PPBP/R":11263,"5rk1/5p2/":11264,"8/8/8 w - - 3 6":11265,"4 Black <MOVE_SEP> h8g8\n":11266,"3 <MOVE_SEP> f8e7 <MOVE_SEP> f":11267,"P1P1p3/":11268,"7a7 <MOVE_SEP> d":11269,"8/8/8 w - - 0 7":11270,"2/1P1P":11271,"8f7 <MOVE_SEP> a":11272,"5d7 <MOVE_SEP> d":11273,"2 White <MOVE_SEP> f1e2\n":11274,"2R1R1K1 w - - 0 2":11275,"r2b4/":11276,"17 8":11277,"2/1PPN":11278,"3BPN2/PP":11279," b Kq - ":11280,"6 <MOVE_SEP> e1g1 <MOVE_SEP> e":11281,"6 White <MOVE_SEP> b1c3\n":11282,"2Q2PP1/R":11283,"5rr1/":11284,"5d5 <MOVE_SEP> g":11285,"1d3 <MOVE_SEP> d":11286,"8h2\n":11287,"p1P1p3/":11288,"4 White <MOVE_SEP> g1g2\n":11289,"1R2b":11290,"1f7\n":11291,"PPP/R1BQK2R w KQkq - 0 ":11292,"2PBPN":11293,"5 White <MOVE_SEP> e3e4\n":11294,"0 Black <MOVE_SEP> c8b7\n":11295,"4K1 w - - ":11296,"8/8/7q/":11297,"pr1/":11298,"1b2N":11299,"2RK1 b kq - 0 1":11300,"1P1P1P2/":11301,"N1Pp":11302,"6 <MOVE_SEP> a4b":11303,"3R4 b - - 2 4":11304,"8/1pp":11305," White <MOVE_SEP> d1e2\n":11306,"8 Black <MOVE_SEP> f8g7\n":11307,"5b5 <MOVE_SEP> d":11308,"6 White <MOVE_SEP> e3e4\n":11309,"2r3k1/5pp1/":11310,"2N3P1/PP1PPPBP/R1B":11311,"1B3K":11312,"1KQ":11313,"3B1P":11314,"5K2 w - - 2 5":11315,"3 <MOVE_SEP> f8e7 <MOVE_SEP> d":11316,"4d4 <MOVE_SEP> g":11317,"6h5 <MOVE_SEP> e":11318,"8 b - - 10 9":11319,"3 w":11320,"8/8/4Q3/":11321,"3rP3/":11322,"9 White <MOVE_SEP> c4c5\n":11323,"7 White <MOVE_SEP> b4b5\n":11324,"2N3P1/PP2PP1P/R1B":11325,"8/8/5kp1/":11326,"5pq1/":11327,"6k1/5p2/p":11328,"5B1k/":11329,"QKBNR w KQkq - 1 6":11330,"2p1p1P1/":11331,"7K b - - 1 5":11332,"Q3N":11333,"rnbqkb1r/pppppppp/5n2/8/2P5/5N2/PP1PPPPP/R":11334,"2P3P1/8/":11335,"3pp1p/":11336,"6 Black <MOVE_SEP> e5e4\n":11337,"p3b3/P":11338,"1p2pn2/3p4/2PP4/":11339,"14 9":11340,"7 Black <MOVE_SEP> a7a5\n":11341,"6K1 w - - 4 3":11342,"5NB1/":11343,"np1p":11344,"2p5/P":11345,"3P1K":11346,"2rr3k/":11347,"2qp4/":11348,"3qB":11349,"1KP2/":11350,"6P1/8/8/":11351,"5p2/7P/":11352,"3 <MOVE_SEP> b6a":11353,"2N2N2/1PP":11354,"0 Black <MOVE_SEP> c5c4\n":11355,"3 Black <MOVE_SEP> g8f8\n":11356,"5 White <MOVE_SEP> b2b4\n":11357,"1R w - - 0 3":11358,"4r3/5k2/":11359,"R3KBNR":11360,"6 <MOVE_SEP> g1f3 <MOVE_SEP> e7e":11361,"3qr":11362,"2pP1B2/":11363,"5 Black <MOVE_SEP> f6f5\n":11364,"r1bqk2r/pp2bpp1/":11365,"r1bqnrk1/":11366,"K1 w - - 6 1":11367,"4QP1P/":11368,"1 Black <MOVE_SEP> f8g7\n":11369,"4 Black <MOVE_SEP> g8f8\n":11370,"3d1 <MOVE_SEP> f":11371,"p2ppp/4pn2/":11372,"PPPP/":11373,"4bP/":11374,"9 Black <MOVE_SEP> f7f5\n":11375,"QK2R b KQkq - 1 7":11376,"5NP1/PP1N":11377,"P1P2P1P/":11378,"0 Black <MOVE_SEP> b8c6\n":11379,"B1P5/":11380,"9 Black <MOVE_SEP> g8f8\n":11381,"P2n4/":11382,"6e4 <MOVE_SEP> g":11383,"r2qk3/":11384,"1K6 w - - 0 4":11385,"k6P/":11386,"3KB1R b KQkq - 0 ":11387,
[...]
